{
  "version": "1.0",
  "model": {
    "vocab": {
      "<pad>": 0,
      "<eos>": 1,
      "<bos>": 2,
      "<unk>": 3,
      "<mask>": 4,
      "[multimodal]": 5,
      "<unused0>": 6,
      "<unused1>": 7,
      "<unused2>": 8,
      "<unused3>": 9,
      "<unused4>": 10,
      "<unused5>": 11,
      "<unused6>": 12,
      "<unused7>": 13,
      "<unused8>": 14,
      "<unused9>": 15,
      "<unused10>": 16,
      "<unused11>": 17,
      "<unused12>": 18,
      "<unused13>": 19,
      "<unused14>": 20,
      "<unused15>": 21,
      "<unused16>": 22,
      "<unused17>": 23,
      "<unused18>": 24,
      "<unused19>": 25,
      "<unused20>": 26,
      "<unused21>": 27,
      "<unused22>": 28,
      "<unused23>": 29,
      "<unused24>": 30,
      "<unused25>": 31,
      "<unused26>": 32,
      "<unused27>": 33,
      "<unused28>": 34,
      "<unused29>": 35,
      "<unused30>": 36,
      "<unused31>": 37,
      "<unused32>": 38,
      "<unused33>": 39,
      "<unused34>": 40,
      "<unused35>": 41,
      "<unused36>": 42,
      "<unused37>": 43,
      "<unused38>": 44,
      "<unused39>": 45,
      "<unused40>": 46,
      "<unused41>": 47,
      "<unused42>": 48,
      "<unused43>": 49,
      "<unused44>": 50,
      "<unused45>": 51,
      "<unused46>": 52,
      "<unused47>": 53,
      "<unused48>": 54,
      "<unused49>": 55,
      "<unused50>": 56,
      "<unused51>": 57,
      "<unused52>": 58,
      "<unused53>": 59,
      "<unused54>": 60,
      "<unused55>": 61,
      "<unused56>": 62,
      "<unused57>": 63,
      "<unused58>": 64,
      "<unused59>": 65,
      "<unused60>": 66,
      "<unused61>": 67,
      "<unused62>": 68,
      "<unused63>": 69,
      "<unused64>": 70,
      "<unused65>": 71,
      "<unused66>": 72,
      "<unused67>": 73,
      "<unused68>": 74,
      "<unused69>": 75,
      "<unused70>": 76,
      "<unused71>": 77,
      "<unused72>": 78,
      "<unused73>": 79,
      "<unused74>": 80,
      "<unused75>": 81,
      "<unused76>": 82,
      "<unused77>": 83,
      "<unused78>": 84,
      "<unused79>": 85,
      "<unused80>": 86,
      "<unused81>": 87,
      "<unused82>": 88,
      "<unused83>": 89,
      "<unused84>": 90,
      "<unused85>": 91,
      "<unused86>": 92,
      "<unused87>": 93,
      "<unused88>": 94,
      "<unused89>": 95,
      "<unused90>": 96,
      "<unused91>": 97,
      "<unused92>": 98,
      "<unused93>": 99,
      "<unused94>": 100,
      "<unused95>": 101,
      "<unused96>": 102,
      "<unused97>": 103,
      "<unused98>": 104,
      "<start_of_turn>": 105,
      "<end_of_turn>": 106,
      "\n": 107,
      "\n\n": 108,
      "\n\n\n": 109,
      "\n\n\n\n": 110,
      "\n\n\n\n\n": 111,
      "\n\n\n\n\n\n": 112,
      "\n\n\n\n\n\n\n": 113,
      "\n\n\n\n\n\n\n\n": 114,
      "\n\n\n\n\n\n\n\n\n": 115,
      "\n\n\n\n\n\n\n\n\n\n": 116,
      "\n\n\n\n\n\n\n\n\n\n\n": 117,
      "\n\n\n\n\n\n\n\n\n\n\n\n": 118,
      "\n\n\n\n\n\n\n\n\n\n\n\n\n": 119,
      "\n\n\n\n\n\n\n\n\n\n\n\n\n\n": 120,
      "\n\n\n\n\n\n\n\n\n\n\n\n\n\n\n": 121,
      "\n\n\n\n\n\n\n\n\n\n\n\n\n\n\n\n": 122,
      "\n\n\n\n\n\n\n\n\n\n\n\n\n\n\n\n\n": 123,
      "\n\n\n\n\n\n\n\n\n\n\n\n\n\n\n\n\n\n": 124,
      "\n\n\n\n\n\n\n\n\n\n\n\n\n\n\n\n\n\n\n": 125,
      "\n\n\n\n\n\n\n\n\n\n\n\n\n\n\n\n\n\n\n\n": 126,
      "\n\n\n\n\n\n\n\n\n\n\n\n\n\n\n\n\n\n\n\n\n": 127,
      "\n\n\n\n\n\n\n\n\n\n\n\n\n\n\n\n\n\n\n\n\n\n": 128,
      "\n\n\n\n\n\n\n\n\n\n\n\n\n\n\n\n\n\n\n\n\n\n\n": 129,
      "\n\n\n\n\n\n\n\n\n\n\n\n\n\n\n\n\n\n\n\n\n\n\n\n": 130,
      "\n\n\n\n\n\n\n\n\n\n\n\n\n\n\n\n\n\n\n\n\n\n\n\n\n": 131,
      "\n\n\n\n\n\n\n\n\n\n\n\n\n\n\n\n\n\n\n\n\n\n\n\n\n\n": 132,
      "\n\n\n\n\n\n\n\n\n\n\n\n\n\n\n\n\n\n\n\n\n\n\n\n\n\n\n": 133,
      "\n\n\n\n\n\n\n\n\n\n\n\n\n\n\n\n\n\n\n\n\n\n\n\n\n\n\n\n": 134,
      "\n\n\n\n\n\n\n\n\n\n\n\n\n\n\n\n\n\n\n\n\n\n\n\n\n\n\n\n\n": 135,
      "\n\n\n\n\n\n\n\n\n\n\n\n\n\n\n\n\n\n\n\n\n\n\n\n\n\n\n\n\n\n": 136,
      "\n\n\n\n\n\n\n\n\n\n\n\n\n\n\n\n\n\n\n\n\n\n\n\n\n\n\n\n\n\n\n": 137,
      "▁▁": 138,
      "▁▁▁": 139,
      "▁▁▁▁": 140,
      "▁▁▁▁▁": 141,
      "▁▁▁▁▁▁": 142,
      "▁▁▁▁▁▁▁": 143,
      "▁▁▁▁▁▁▁▁": 144,
      "▁▁▁▁▁▁▁▁▁": 145,
      "▁▁▁▁▁▁▁▁▁▁": 146,
      "▁▁▁▁▁▁▁▁▁▁▁": 147,
      "▁▁▁▁▁▁▁▁▁▁▁▁": 148,
      "▁▁▁▁▁▁▁▁▁▁▁▁▁": 149,
      "▁▁▁▁▁▁▁▁▁▁▁▁▁▁": 150,
      "▁▁▁▁▁▁▁▁▁▁▁▁▁▁▁": 151,
      "▁▁▁▁▁▁▁▁▁▁▁▁▁▁▁▁": 152,
      "▁▁▁▁▁▁▁▁▁▁▁▁▁▁▁▁▁": 153,
      "▁▁▁▁▁▁▁▁▁▁▁▁▁▁▁▁▁▁": 154,
      "▁▁▁▁▁▁▁▁▁▁▁▁▁▁▁▁▁▁▁": 155,
      "▁▁▁▁▁▁▁▁▁▁▁▁▁▁▁▁▁▁▁▁": 156,
      "▁▁▁▁▁▁▁▁▁▁▁▁▁▁▁▁▁▁▁▁▁": 157,
      "▁▁▁▁▁▁▁▁▁▁▁▁▁▁▁▁▁▁▁▁▁▁": 158,
      "▁▁▁▁▁▁▁▁▁▁▁▁▁▁▁▁▁▁▁▁▁▁▁": 159,
      "▁▁▁▁▁▁▁▁▁▁▁▁▁▁▁▁▁▁▁▁▁▁▁▁": 160,
      "▁▁▁▁▁▁▁▁▁▁▁▁▁▁▁▁▁▁▁▁▁▁▁▁▁": 161,
      "▁▁▁▁▁▁▁▁▁▁▁▁▁▁▁▁▁▁▁▁▁▁▁▁▁▁": 162,
      "▁▁▁▁▁▁▁▁▁▁▁▁▁▁▁▁▁▁▁▁▁▁▁▁▁▁▁": 163,
      "▁▁▁▁▁▁▁▁▁▁▁▁▁▁▁▁▁▁▁▁▁▁▁▁▁▁▁▁": 164,
      "▁▁▁▁▁▁▁▁▁▁▁▁▁▁▁▁▁▁▁▁▁▁▁▁▁▁▁▁▁": 165,
      "▁▁▁▁▁▁▁▁▁▁▁▁▁▁▁▁▁▁▁▁▁▁▁▁▁▁▁▁▁▁": 166,
      "▁▁▁▁▁▁▁▁▁▁▁▁▁▁▁▁▁▁▁▁▁▁▁▁▁▁▁▁▁▁▁": 167,
      "<table>": 168,
      "<caption>": 169,
      "<thead>": 170,
      "<tbody>": 171,
      "<tfoot>": 172,
      "<tr>": 173,
      "<th>": 174,
      "<td>": 175,
      "</table>": 176,
      "</caption>": 177,
      "</thead>": 178,
      "</tbody>": 179,
      "</tfoot>": 180,
      "</tr>": 181,
      "</th>": 182,
      "</td>": 183,
      "<h1>": 184,
      "<h2>": 185,
      "<h3>": 186,
      "<h4>": 187,
      "<h5>": 188,
      "<h6>": 189,
      "<blockquote>": 190,
      "</h1>": 191,
      "</h2>": 192,
      "</h3>": 193,
      "</h4>": 194,
      "</h5>": 195,
      "</h6>": 196,
      "</blockquote>": 197,
      "<strong>": 198,
      "<em>": 199,
      "<b>": 200,
      "<i>": 201,
      "<u>": 202,
      "<s>": 203,
      "<sub>": 204,
      "<sup>": 205,
      "<code>": 206,
      "</strong>": 207,
      "</em>": 208,
      "</b>": 209,
      "</i>": 210,
      "</u>": 211,
      "</s>": 212,
      "</sub>": 213,
      "</sup>": 214,
      "</code>": 215,
      "<a>": 216,
      "<html>": 217,
      "<body>": 218,
      "<img>": 219,
      "<span>": 220,
      "<bbox>": 221,
      "<ul>": 222,
      "<li>": 223,
      "<div>": 224,
      "<iframe>": 225,
      "<footer>": 226,
      "</a>": 227,
      "</html>": 228,
      "</body>": 229,
      "</img>": 230,
      "</span>": 231,
      "</bbox>": 232,
      "</ul>": 233,
      "</li>": 234,
      "</div>": 235,
      "</iframe>": 236,
      "</footer>": 237,
      "<0x00>": 238,
      "<0x01>": 239,
      "<0x02>": 240,
      "<0x03>": 241,
      "<0x04>": 242,
      "<0x05>": 243,
      "<0x06>": 244,
      "<0x07>": 245,
      "<0x08>": 246,
      "<0x09>": 247,
      "<0x0A>": 248,
      "<0x0B>": 249,
      "<0x0C>": 250,
      "<0x0D>": 251,
      "<0x0E>": 252,
      "<0x0F>": 253,
      "<0x10>": 254,
      "<0x11>": 255,
      "<0x12>": 256,
      "<0x13>": 257,
      "<0x14>": 258,
      "<0x15>": 259,
      "<0x16>": 260,
      "<0x17>": 261,
      "<0x18>": 262,
      "<0x19>": 263,
      "<0x1A>": 264,
      "<0x1B>": 265,
      "<0x1C>": 266,
      "<0x1D>": 267,
      "<0x1E>": 268,
      "<0x1F>": 269,
      "<0x20>": 270,
      "<0x21>": 271,
      "<0x22>": 272,
      "<0x23>": 273,
      "<0x24>": 274,
      "<0x25>": 275,
      "<0x26>": 276,
      "<0x27>": 277,
      "<0x28>": 278,
      "<0x29>": 279,
      "<0x2A>": 280,
      "<0x2B>": 281,
      "<0x2C>": 282,
      "<0x2D>": 283,
      "<0x2E>": 284,
      "<0x2F>": 285,
      "<0x30>": 286,
      "<0x31>": 287,
      "<0x32>": 288,
      "<0x33>": 289,
      "<0x34>": 290,
      "<0x35>": 291,
      "<0x36>": 292,
      "<0x37>": 293,
      "<0x38>": 294,
      "<0x39>": 295,
      "<0x3A>": 296,
      "<0x3B>": 297,
      "<0x3C>": 298,
      "<0x3D>": 299,
      "<0x3E>": 300,
      "<0x3F>": 301,
      "<0x40>": 302,
      "<0x41>": 303,
      "<0x42>": 304,
      "<0x43>": 305,
      "<0x44>": 306,
      "<0x45>": 307,
      "<0x46>": 308,
      "<0x47>": 309,
      "<0x48>": 310,
      "<0x49>": 311,
      "<0x4A>": 312,
      "<0x4B>": 313,
      "<0x4C>": 314,
      "<0x4D>": 315,
      "<0x4E>": 316,
      "<0x4F>": 317,
      "<0x50>": 318,
      "<0x51>": 319,
      "<0x52>": 320,
      "<0x53>": 321,
      "<0x54>": 322,
      "<0x55>": 323,
      "<0x56>": 324,
      "<0x57>": 325,
      "<0x58>": 326,
      "<0x59>": 327,
      "<0x5A>": 328,
      "<0x5B>": 329,
      "<0x5C>": 330,
      "<0x5D>": 331,
      "<0x5E>": 332,
      "<0x5F>": 333,
      "<0x60>": 334,
      "<0x61>": 335,
      "<0x62>": 336,
      "<0x63>": 337,
      "<0x64>": 338,
      "<0x65>": 339,
      "<0x66>": 340,
      "<0x67>": 341,
      "<0x68>": 342,
      "<0x69>": 343,
      "<0x6A>": 344,
      "<0x6B>": 345,
      "<0x6C>": 346,
      "<0x6D>": 347,
      "<0x6E>": 348,
      "<0x6F>": 349,
      "<0x70>": 350,
      "<0x71>": 351,
      "<0x72>": 352,
      "<0x73>": 353,
      "<0x74>": 354,
      "<0x75>": 355,
      "<0x76>": 356,
      "<0x77>": 357,
      "<0x78>": 358,
      "<0x79>": 359,
      "<0x7A>": 360,
      "<0x7B>": 361,
      "<0x7C>": 362,
      "<0x7D>": 363,
      "<0x7E>": 364,
      "<0x7F>": 365,
      "<0x80>": 366,
      "<0x81>": 367,
      "<0x82>": 368,
      "<0x83>": 369,
      "<0x84>": 370,
      "<0x85>": 371,
      "<0x86>": 372,
      "<0x87>": 373,
      "<0x88>": 374,
      "<0x89>": 375,
      "<0x8A>": 376,
      "<0x8B>": 377,
      "<0x8C>": 378,
      "<0x8D>": 379,
      "<0x8E>": 380,
      "<0x8F>": 381,
      "<0x90>": 382,
      "<0x91>": 383,
      "<0x92>": 384,
      "<0x93>": 385,
      "<0x94>": 386,
      "<0x95>": 387,
      "<0x96>": 388,
      "<0x97>": 389,
      "<0x98>": 390,
      "<0x99>": 391,
      "<0x9A>": 392,
      "<0x9B>": 393,
      "<0x9C>": 394,
      "<0x9D>": 395,
      "<0x9E>": 396,
      "<0x9F>": 397,
      "<0xA0>": 398,
      "<0xA1>": 399,
      "<0xA2>": 400,
      "<0xA3>": 401,
      "<0xA4>": 402,
      "<0xA5>": 403,
      "<0xA6>": 404,
      "<0xA7>": 405,
      "<0xA8>": 406,
      "<0xA9>": 407,
      "<0xAA>": 408,
      "<0xAB>": 409,
      "<0xAC>": 410,
      "<0xAD>": 411,
      "<0xAE>": 412,
      "<0xAF>": 413,
      "<0xB0>": 414,
      "<0xB1>": 415,
      "<0xB2>": 416,
      "<0xB3>": 417,
      "<0xB4>": 418,
      "<0xB5>": 419,
      "<0xB6>": 420,
      "<0xB7>": 421,
      "<0xB8>": 422,
      "<0xB9>": 423,
      "<0xBA>": 424,
      "<0xBB>": 425,
      "<0xBC>": 426,
      "<0xBD>": 427,
      "<0xBE>": 428,
      "<0xBF>": 429,
      "<0xC0>": 430,
      "<0xC1>": 431,
      "<0xC2>": 432,
      "<0xC3>": 433,
      "<0xC4>": 434,
      "<0xC5>": 435,
      "<0xC6>": 436,
      "<0xC7>": 437,
      "<0xC8>": 438,
      "<0xC9>": 439,
      "<0xCA>": 440,
      "<0xCB>": 441,
      "<0xCC>": 442,
      "<0xCD>": 443,
      "<0xCE>": 444,
      "<0xCF>": 445,
      "<0xD0>": 446,
      "<0xD1>": 447,
      "<0xD2>": 448,
      "<0xD3>": 449,
      "<0xD4>": 450,
      "<0xD5>": 451,
      "<0xD6>": 452,
      "<0xD7>": 453,
      "<0xD8>": 454,
      "<0xD9>": 455,
      "<0xDA>": 456,
      "<0xDB>": 457,
      "<0xDC>": 458,
      "<0xDD>": 459,
      "<0xDE>": 460,
      "<0xDF>": 461,
      "<0xE0>": 462,
      "<0xE1>": 463,
      "<0xE2>": 464,
      "<0xE3>": 465,
      "<0xE4>": 466,
      "<0xE5>": 467,
      "<0xE6>": 468,
      "<0xE7>": 469,
      "<0xE8>": 470,
      "<0xE9>": 471,
      "<0xEA>": 472,
      "<0xEB>": 473,
      "<0xEC>": 474,
      "<0xED>": 475,
      "<0xEE>": 476,
      "<0xEF>": 477,
      "<0xF0>": 478,
      "<0xF1>": 479,
      "<0xF2>": 480,
      "<0xF3>": 481,
      "<0xF4>": 482,
      "<0xF5>": 483,
      "<0xF6>": 484,
      "<0xF7>": 485,
      "<0xF8>": 486,
      "<0xF9>": 487,
      "<0xFA>": 488,
      "<0xFB>": 489,
      "<0xFC>": 490,
      "<0xFD>": 491,
      "<0xFE>": 492,
      "<0xFF>": 493,
      "▁t": 494,
      "in": 495,
      "▁a": 496,
      "er": 497,
      "on": 498,
      "he": 499,
      "re": 500,
      "en": 501,
      "at": 502,
      "▁s": 503,
      "or": 504,
      "▁c": 505,
      "▁the": 506,
      "es": 507,
      "an": 508,
      "it": 509,
      "▁p": 510,
      "is": 511,
      "▁o": 512,
      "▁d": 513,
      "al": 514,
      "▁w": 515,
      "ar": 516,
      "▁f": 517,
      "▁b": 518,
      "le": 519,
      "▁m": 520,
      "ou": 521,
      "ing": 522,
      "nd": 523,
      "ed": 524,
      "ic": 525,
      "ion": 526,
      "as": 527,
      "▁in": 528,
      "▁of": 529,
      "ro": 530,
      "▁to": 531,
      "▁and": 532,
      "ent": 533,
      "▁h": 534,
      "el": 535,
      "et": 536,
      "▁l": 537,
      "▁n": 538,
      "ct": 539,
      "st": 540,
      "▁th": 541,
      "om": 542,
      "il": 543,
      "▁re": 544,
      "▁e": 545,
      "am": 546,
      "id": 547,
      "im": 548,
      "▁g": 549,
      "ut": 550,
      "ol": 551,
      "ac": 552,
      "ad": 553,
      "ig": 554,
      "▁S": 555,
      "ur": 556,
      "ot": 557,
      "▁T": 558,
      "▁u": 559,
      "ve": 560,
      "se": 561,
      "▁A": 562,
      "▁is": 563,
      "▁I": 564,
      "▁C": 565,
      "▁v": 566,
      "ation": 567,
      "▁(": 568,
      "▁de": 569,
      "▁y": 570,
      "ay": 571,
      "ow": 572,
      "▁for": 573,
      "ch": 574,
      "ul": 575,
      "qu": 576,
      "▁be": 577,
      "▁=": 578,
      "▁st": 579,
      "▁on": 580,
      "em": 581,
      "ag": 582,
      "ir": 583,
      "if": 584,
      "os": 585,
      "ly": 586,
      "▁M": 587,
      "ce": 588,
      "ter": 589,
      "od": 590,
      "▁con": 591,
      "ith": 592,
      "▁P": 593,
      "th": 594,
      "ver": 595,
      "ab": 596,
      "um": 597,
      "est": 598,
      "▁क": 599,
      "▁that": 600,
      "ra": 601,
      "un": 602,
      "▁B": 603,
      "ri": 604,
      "us": 605,
      "ate": 606,
      "▁with": 607,
      "▁pro": 608,
      "▁$": 609,
      "▁al": 610,
      "▁you": 611,
      "pp": 612,
      "ht": 613,
      "▁an": 614,
      "▁wh": 615,
      "ers": 616,
      "ist": 617,
      "▁as": 618,
      "res": 619,
      "▁k": 620,
      "▁\\": 621,
      "▁D": 622,
      "▁\"": 623,
      "and": 624,
      "▁it": 625,
      ");": 626,
      "ere": 627,
      "ak": 628,
      "oc": 629,
      "▁R": 630,
      "▁com": 631,
      "ort": 632,
      "▁F": 633,
      "ess": 634,
      "pe": 635,
      "▁se": 636,
      "▁r": 637,
      "ant": 638,
      "▁L": 639,
      "▁H": 640,
      "ew": 641,
      "▁{": 642,
      "end": 643,
      "ill": 644,
      "▁E": 645,
      "▁N": 646,
      "ction": 647,
      "iv": 648,
      "▁W": 649,
      "op": 650,
      "ath": 651,
      "▁ex": 652,
      "▁or": 653,
      "te": 654,
      "▁<": 655,
      "ight": 656,
      "▁at": 657,
      "ment": 658,
      "▁are": 659,
      "rom": 660,
      "art": 661,
      "ain": 662,
      "ore": 663,
      "▁su": 664,
      "ity": 665,
      "nt": 666,
      "▁G": 667,
      "▁he": 668,
      "▁The": 669,
      "ap": 670,
      "ld": 671,
      "▁this": 672,
      "▁j": 673,
      "▁le": 674,
      "pl": 675,
      "age": 676,
      "▁ch": 677,
      "▁ha": 678,
      "og": 679,
      "ok": 680,
      "_{": 681,
      "▁}": 682,
      "ame": 683,
      "▁by": 684,
      "iz": 685,
      "▁ह": 686,
      "ue": 687,
      "ine": 688,
      "ud": 689,
      "▁qu": 690,
      "▁was": 691,
      "▁we": 692,
      "pt": 693,
      "ure": 694,
      "ies": 695,
      "▁en": 696,
      "ack": 697,
      "ang": 698,
      "▁from": 699,
      "our": 700,
      "▁स": 701,
      "ass": 702,
      "ie": 703,
      "▁sh": 704,
      "ive": 705,
      "ial": 706,
      "ust": 707,
      "▁O": 708,
      "ub": 709,
      "rou": 710,
      "▁not": 711,
      "all": 712,
      "ell": 713,
      "ard": 714,
      "//": 715,
      "ex": 716,
      "ect": 717,
      "=\"": 718,
      "▁tr": 719,
      "int": 720,
      "per": 721,
      "ia": 722,
      "▁un": 723,
      "ind": 724,
      "out": 725,
      "--": 726,
      "ik": 727,
      "port": 728,
      "▁pl": 729,
      "▁J": 730,
      "ost": 731,
      "▁cl": 732,
      "are": 733,
      "ich": 734,
      "▁have": 735,
      "ff": 736,
      "av": 737,
      "cl": 738,
      "▁म": 739,
      "▁can": 740,
      "orm": 741,
      "able": 742,
      "ans": 743,
      "▁ا": 744,
      "ult": 745,
      "con": 746,
      "math": 747,
      "ib": 748,
      "▁U": 749,
      "ire": 750,
      "▁K": 751,
      "ast": 752,
      "▁-": 753,
      "ide": 754,
      "ile": 755,
      "▁'": 756,
      "▁im": 757,
      "▁प": 758,
      "▁la": 759,
      "ip": 760,
      "ome": 761,
      "ice": 762,
      "▁ab": 763,
      "ime": 764,
      "ft": 765,
      "▁res": 766,
      "cc": 767,
      "▁if": 768,
      ").": 769,
      "▁ne": 770,
      "ould": 771,
      "▁ad": 772,
      "act": 773,
      "ated": 774,
      "▁us": 775,
      "▁do": 776,
      "▁comp": 777,
      "ord": 778,
      "),": 779,
      "du": 780,
      "ase": 781,
      "▁V": 782,
      "▁.": 783,
      "▁all": 784,
      "ite": 785,
      "▁me": 786,
      "ge": 787,
      "lic": 788,
      "hen": 789,
      "^{": 790,
      "ph": 791,
      "ace": 792,
      "ber": 793,
      "urn": 794,
      "▁will": 795,
      "ign": 796,
      "ong": 797,
      "▁cont": 798,
      "▁In": 799,
      "ical": 800,
      "▁int": 801,
      "ork": 802,
      "ear": 803,
      "ition": 804,
      "ata": 805,
      "ous": 806,
      "▁Th": 807,
      "▁*": 808,
      "row": 809,
      "▁per": 810,
      "one": 811,
      "rm": 812,
      "ach": 813,
      "so": 814,
      "▁has": 815,
      "ru": 816,
      "▁go": 817,
      "The": 818,
      "ence": 819,
      "▁है": 820,
      "fer": 821,
      "▁your": 822,
      "}$": 823,
      "ry": 824,
      "()": 825,
      "au": 826,
      "\",": 827,
      "get": 828,
      "ng": 829,
      "ont": 830,
      "ance": 831,
      "ens": 832,
      "▁&": 833,
      "▁so": 834,
      "ary": 835,
      "ें": 836,
      "▁which": 837,
      "ep": 838,
      "ther": 839,
      "▁but": 840,
      "ma": 841,
      "▁St": 842,
      "▁п": 843,
      "lo": 844,
      "form": 845,
      "या": 846,
      "ations": 847,
      "ount": 848,
      "्र": 849,
      "▁app": 850,
      "ring": 851,
      "ress": 852,
      "▁des": 853,
      "com": 854,
      "▁out": 855,
      "..": 856,
      "ার": 857,
      "▁i": 858,
      "ll": 859,
      "gh": 860,
      "▁new": 861,
      "▁el": 862,
      "▁ar": 863,
      "▁dis": 864,
      "▁pr": 865,
      "ne": 866,
      "ार": 867,
      "mathrm": 868,
      "ov": 869,
      "▁[": 870,
      "ст": 871,
      "▁up": 872,
      "ake": 873,
      "▁$\\": 874,
      "ook": 875,
      "ents": 876,
      "▁pre": 877,
      "ions": 878,
      "erv": 879,
      "▁man": 880,
      "▁ক": 881,
      "▁ब": 882,
      "elf": 883,
      "ual": 884,
      "(\"": 885,
      "▁one": 886,
      "turn": 887,
      "ose": 888,
      "▁ज": 889,
      "▁sa": 890,
      "ask": 891,
      "▁sp": 892,
      "de": 893,
      "St": 894,
      "▁Y": 895,
      "▁के": 896,
      "io": 897,
      "right": 898,
      "ark": 899,
      "▁+": 900,
      "▁they": 901,
      "In": 902,
      "xt": 903,
      "▁z": 904,
      "\">": 905,
      "cre": 906,
      "ert": 907,
      "▁col": 908,
      "▁в": 909,
      "▁their": 910,
      "на": 911,
      "▁part": 912,
      "ors": 913,
      "▁his": 914,
      "vel": 915,
      "ext": 916,
      "ail": 917,
      "ater": 918,
      "▁more": 919,
      "▁ال": 920,
      "ने": 921,
      "▁স": 922,
      "enc": 923,
      "но": 924,
      "yst": 925,
      "▁te": 926,
      "▁आ": 927,
      "ject": 928,
      "▁que": 929,
      "ree": 930,
      "own": 931,
      "ck": 932,
      "ory": 933,
      "iew": 934,
      "▁ro": 935,
      "ick": 936,
      "▁с": 937,
      "ild": 938,
      "▁inter": 939,
      "▁व": 940,
      "▁und": 941,
      "ple": 942,
      "che": 943,
      "▁par": 944,
      "ock": 945,
      "▁ব": 946,
      "old": 947,
      "ни": 948,
      "her": 949,
      "▁द": 950,
      "▁no": 951,
      "eg": 952,
      "ely": 953,
      "</": 954,
      "▁প": 955,
      "ра": 956,
      "ah": 957,
      "}\\": 958,
      "▁ev": 959,
      "ound": 960,
      "ink": 961,
      "▁अ": 962,
      "',": 963,
      "▁were": 964,
      "▁/": 965,
      "pon": 966,
      "▁ag": 967,
      "lect": 968,
      "ize": 969,
      "ient": 970,
      "▁Ch": 971,
      "pr": 972,
      "▁//": 973,
      "▁get": 974,
      "ps": 975,
      "low": 976,
      "we": 977,
      "ery": 978,
      "round": 979,
      "ari": 980,
      "▁work": 981,
      "ob": 982,
      "ের": 983,
      "ode": 984,
      "ike": 985,
      "ys": 986,
      "ublic": 987,
      "▁ल": 988,
      "left": 989,
      "▁time": 990,
      "led": 991,
      "▁also": 992,
      "▁there": 993,
      "▁return": 994,
      "▁م": 995,
      "ype": 996,
      "▁#": 997,
      "ystem": 998,
      "▁“": 999,
      "put": 1000,
      "▁di": 1001,
      "erm": 1002,
      "▁about": 1003,
      "ays": 1004,
      "text": 1005,
      "▁am": 1006,
      "ade": 1007,
      "▁et": 1008,
      "▁est": 1009,
      "▁been": 1010,
      "্র": 1011,
      "▁class": 1012,
      "ings": 1013,
      "wo": 1014,
      "▁who": 1015,
      "▁val": 1016,
      "▁:": 1017,
      "**": 1018,
      "▁में": 1019,
      "sp": 1020,
      "ric": 1021,
      "▁pe": 1022,
      "▁our": 1023,
      "▁over": 1024,
      "set": 1025,
      "ener": 1026,
      "▁any": 1027,
      "▁co": 1028,
      "▁ob": 1029,
      "▁It": 1030,
      "▁,": 1031,
      "▁other": 1032,
      "('": 1033,
      "ove": 1034,
      "irst": 1035,
      "▁ind": 1036,
      "ian": 1037,
      "ро": 1038,
      "▁र": 1039,
      "----": 1040,
      "▁my": 1041,
      "mer": 1042,
      "ram": 1043,
      "ish": 1044,
      "pro": 1045,
      "unction": 1046,
      "▁spe": 1047,
      "up": 1048,
      "inal": 1049,
      "ec": 1050,
      "▁year": 1051,
      "anc": 1052,
      "▁had": 1053,
      "▁kn": 1054,
      "▁acc": 1055,
      "▁when": 1056,
      "▁ک": 1057,
      "ко": 1058,
      "reat": 1059,
      "▁sc": 1060,
      "▁its": 1061,
      "то": 1062,
      "▁back": 1063,
      "eth": 1064,
      "oken": 1065,
      "clud": 1066,
      "▁ph": 1067,
      "ull": 1068,
      "▁त": 1069,
      "▁some": 1070,
      "to": 1071,
      "ey": 1072,
      "rib": 1073,
      "les": 1074,
      "ss": 1075,
      "▁set": 1076,
      "্য": 1077,
      "oint": 1078,
      "▁и": 1079,
      "mask": 1080,
      "ific": 1081,
      "▁than": 1082,
      "\":": 1083,
      "iss": 1084,
      "र्": 1085,
      "();": 1086,
      "itt": 1087,
      "oy": 1088,
      "ER": 1089,
      "ates": 1090,
      "▁them": 1091,
      "▁em": 1092,
      "▁would": 1093,
      "eng": 1094,
      "▁न": 1095,
      "▁def": 1096,
      "cess": 1097,
      "▁dif": 1098,
      "ier": 1099,
      "▁ب": 1100,
      "fter": 1101,
      "iel": 1102,
      "▁comm": 1103,
      "▁о": 1104,
      "▁bl": 1105,
      "import": 1106,
      "igh": 1107,
      "ton": 1108,
      "▁|": 1109,
      "app": 1110,
      "val": 1111,
      "ug": 1112,
      "ों": 1113,
      "token": 1114,
      "▁es": 1115,
      "▁her": 1116,
      "ise": 1117,
      "▁pos": 1118,
      "ange": 1119,
      "▁mod": 1120,
      "vers": 1121,
      "▁cons": 1122,
      "▁x": 1123,
      "ax": 1124,
      "▁rec": 1125,
      ".,": 1126,
      "▁fe": 1127,
      "der": 1128,
      "ek": 1129,
      "▁produ": 1130,
      "▁into": 1131,
      "ann": 1132,
      "▁like": 1133,
      "▁act": 1134,
      "▁off": 1135,
      "und": 1136,
      "▁এ": 1137,
      "▁add": 1138,
      "ता": 1139,
      "ON": 1140,
      "ান": 1141,
      "▁const": 1142,
      "cept": 1143,
      "▁what": 1144,
      "fr": 1145,
      "▁bet": 1146,
      "▁कर": 1147,
      "ble": 1148,
      "▁may": 1149,
      "ре": 1150,
      "▁rel": 1151,
      "▁num": 1152,
      "ular": 1153,
      "ally": 1154,
      "ement": 1155,
      "▁two": 1156,
      "▁reg": 1157,
      "very": 1158,
      "▁sub": 1159,
      "->": 1160,
      "▁use": 1161,
      "▁del": 1162,
      "pos": 1163,
      "▁just": 1164,
      "▁की": 1165,
      "sc": 1166,
      "▁д": 1167,
      "tr": 1168,
      "ox": 1169,
      "}{": 1170,
      "▁first": 1171,
      "ef": 1172,
      "ка": 1173,
      "▁This": 1174,
      "▁ent": 1175,
      "▁said": 1176,
      "ym": 1177,
      "ied": 1178,
      "sh": 1179,
      "pect": 1180,
      "ank": 1181,
      "▁আ": 1182,
      "▁form": 1183,
      "let": 1184,
      "ood": 1185,
      "▁only": 1186,
      "arg": 1187,
      "▁ass": 1188,
      "▁gr": 1189,
      "ons": 1190,
      "▁We": 1191,
      "red": 1192,
      "err": 1193,
      "ating": 1194,
      "olog": 1195,
      "aj": 1196,
      "▁bu": 1197,
      "▁को": 1198,
      "ause": 1199,
      "▁इ": 1200,
      "name": 1201,
      "▁need": 1202,
      "ale": 1203,
      "IN": 1204,
      "ix": 1205,
      "▁bec": 1206,
      "▁trans": 1207,
      "▁under": 1208,
      "ool": 1209,
      "ict": 1210,
      "்க": 1211,
      "▁و": 1212,
      "ract": 1213,
      "Th": 1214,
      "par": 1215,
      "য়": 1216,
      "▁how": 1217,
      "▁prov": 1218,
      "্ত": 1219,
      "tt": 1220,
      "▁requ": 1221,
      "uch": 1222,
      "))": 1223,
      "==": 1224,
      "az": 1225,
      "▁ac": 1226,
      "▁att": 1227,
      "ung": 1228,
      "ics": 1229,
      "ments": 1230,
      "го": 1231,
      "ва": 1232,
      "▁का": 1233,
      "tern": 1234,
      "oth": 1235,
      "ities": 1236,
      "▁public": 1237,
      "ना": 1238,
      "▁these": 1239,
      "riv": 1240,
      "ен": 1241,
      "ople": 1242,
      "▁হ": 1243,
      "}^{": 1244,
      "ли": 1245,
      "ta": 1246,
      "ility": 1247,
      "▁से": 1248,
      "que": 1249,
      "ner": 1250,
      "▁==": 1251,
      "▁ग": 1252,
      "ible": 1253,
      "ray": 1254,
      "▁Pro": 1255,
      "rain": 1256,
      "line": 1257,
      "its": 1258,
      "ield": 1259,
      "vent": 1260,
      "ning": 1261,
      "▁data": 1262,
      "},": 1263,
      "ures": 1264,
      "▁self": 1265,
      "rough": 1266,
      "▁stat": 1267,
      "▁pol": 1268,
      "__": 1269,
      "▁sur": 1270,
      "▁–": 1271,
      "▁ম": 1272,
      "▁che": 1273,
      "ren": 1274,
      "ful": 1275,
      "▁Re": 1276,
      "ator": 1277,
      "▁pres": 1278,
      "▁ন": 1279,
      "ative": 1280,
      "▁know": 1281,
      "add": 1282,
      "ages": 1283,
      "ón": 1284,
      "ution": 1285,
      "▁Un": 1286,
      "ci": 1287,
      "▁such": 1288,
      "mo": 1289,
      "▁det": 1290,
      "्य": 1291,
      "▁function": 1292,
      "▁He": 1293,
      "als": 1294,
      "▁car": 1295,
      "atch": 1296,
      "ри": 1297,
      "▁where": 1298,
      "▁then": 1299,
      "▁sol": 1300,
      "▁Com": 1301,
      "rit": 1302,
      "ues": 1303,
      "▁she": 1304,
      "те": 1305,
      "▁ए": 1306,
      "}_{": 1307,
      "▁after": 1308,
      "any": 1309,
      "ond": 1310,
      "▁по": 1311,
      "▁कि": 1312,
      "▁cur": 1313,
      "(\\": 1314,
      "ower": 1315,
      "ash": 1316,
      "▁stud": 1317,
      "▁м": 1318,
      "erson": 1319,
      "▁eff": 1320,
      "fore": 1321,
      "▁min": 1322,
      "िक": 1323,
      "▁rem": 1324,
      "ident": 1325,
      "▁inst": 1326,
      "mi": 1327,
      "ute": 1328,
      "та": 1329,
      "▁ত": 1330,
      "▁people": 1331,
      "▁भ": 1332,
      "▁на": 1333,
      "▁কর": 1334,
      "▁differ": 1335,
      "me": 1336,
      "не": 1337,
      "arch": 1338,
      "▁Se": 1339,
      "of": 1340,
      "▁उ": 1341,
      "्या": 1342,
      "▁through": 1343,
      "rent": 1344,
      "▁end": 1345,
      "▁most": 1346,
      "ser": 1347,
      "aw": 1348,
      "▁supp": 1349,
      "ль": 1350,
      "ough": 1351,
      "hat": 1352,
      "ational": 1353,
      "▁result": 1354,
      "்த": 1355,
      "ms": 1356,
      "RE": 1357,
      "ices": 1358,
      "स्": 1359,
      "▁cor": 1360,
      "ased": 1361,
      "ider": 1362,
      "ty": 1363,
      "co": 1364,
      "ins": 1365,
      "▁Q": 1366,
      "▁দ": 1367,
      "▁spec": 1368,
      "▁ser": 1369,
      ")$": 1370,
      "hed": 1371,
      "▁includ": 1372,
      "\")": 1373,
      "▁should": 1374,
      "AT": 1375,
      "▁serv": 1376,
      "roup": 1377,
      "▁fl": 1378,
      "▁inv": 1379,
      "ла": 1380,
      "▁ve": 1381,
      "▁aut": 1382,
      "ollow": 1383,
      "▁औ": 1384,
      "▁look": 1385,
      "▁make": 1386,
      "min": 1387,
      "▁well": 1388,
      "ai": 1389,
      "...": 1390,
      "ground": 1391,
      "▁@": 1392,
      "ST": 1393,
      "▁hel": 1394,
      "▁op": 1395,
      "ature": 1396,
      "ान": 1397,
      "uc": 1398,
      "read": 1399,
      "▁sim": 1400,
      "▁very": 1401,
      "▁और": 1402,
      "ily": 1403,
      "air": 1404,
      "ript": 1405,
      "▁sm": 1406,
      "▁show": 1407,
      "##": 1408,
      "▁đ": 1409,
      "ம்": 1410,
      "://": 1411,
      "ts": 1412,
      "▁loc": 1413,
      "amp": 1414,
      "uring": 1415,
      "els": 1416,
      "wn": 1417,
      "▁every": 1418,
      "▁import": 1419,
      "frac": 1420,
      "▁cal": 1421,
      "▁av": 1422,
      "ला": 1423,
      "cent": 1424,
      "AR": 1425,
      "ces": 1426,
      "rol": 1427,
      "▁equ": 1428,
      "▁Al": 1429,
      "raph": 1430,
      "imes": 1431,
      "ument": 1432,
      "oid": 1433,
      "ious": 1434,
      "ruct": 1435,
      "ان": 1436,
      "the": 1437,
      "ado": 1438,
      "EN": 1439,
      "▁long": 1440,
      "▁play": 1441,
      "▁dist": 1442,
      "\");": 1443,
      "gan": 1444,
      "क्": 1445,
      "ern": 1446,
      "▁right": 1447,
      "▁mem": 1448,
      "▁ext": 1449,
      "▁los": 1450,
      "▁could": 1451,
      "▁And": 1452,
      "▁অ": 1453,
      "▁</": 1454,
      "▁An": 1455,
      "▁used": 1456,
      "br": 1457,
      "▁system": 1458,
      "▁ra": 1459,
      "▁see": 1460,
      "▁want": 1461,
      "▁wor": 1462,
      "▁name": 1463,
      "ле": 1464,
      "ced": 1465,
      "ween": 1466,
      "velop": 1467,
      "ны": 1468,
      "▁б": 1469,
      "▁med": 1470,
      "irect": 1471,
      "ines": 1472,
      "):": 1473,
      "aut": 1474,
      "col": 1475,
      "ward": 1476,
      "▁=>": 1477,
      "ave": 1478,
      "Re": 1479,
      "::": 1480,
      "▁tem": 1481,
      "ife": 1482,
      "ال": 1483,
      "yn": 1484,
      "▁प्र": 1485,
      "▁gener": 1486,
      "lement": 1487,
      "cond": 1488,
      "Pro": 1489,
      "uk": 1490,
      "▁Z": 1491,
      "▁now": 1492,
      "ting": 1493,
      "▁high": 1494,
      "▁च": 1495,
      "day": 1496,
      "▁exper": 1497,
      "ots": 1498,
      "ada": 1499,
      "▁follow": 1500,
      "▁हो": 1501,
      "▁start": 1502,
      "▁mon": 1503,
      "ven": 1504,
      "Con": 1505,
      "ho": 1506,
      "ctions": 1507,
      "self": 1508,
      "It": 1509,
      "▁lo": 1510,
      "▁ed": 1511,
      "▁cre": 1512,
      "yle": 1513,
      "Im": 1514,
      "▁him": 1515,
      "data": 1516,
      "ión": 1517,
      "▁years": 1518,
      "▁sign": 1519,
      "▁exp": 1520,
      "▁dec": 1521,
      "oun": 1522,
      "▁point": 1523,
      "▁vari": 1524,
      "amb": 1525,
      "▁hand": 1526,
      "▁count": 1527,
      "ml": 1528,
      "▁з": 1529,
      "ody": 1530,
      "▁let": 1531,
      "fig": 1532,
      "▁gu": 1533,
      "▁between": 1534,
      "▁good": 1535,
      "AN": 1536,
      "▁don": 1537,
      "other": 1538,
      "▁पर": 1539,
      "▁str": 1540,
      "েন": 1541,
      "yl": 1542,
      "view": 1543,
      "tain": 1544,
      "▁हैं": 1545,
      "▁each": 1546,
      "▁because": 1547,
      "▁number": 1548,
      "▁ت": 1549,
      "▁value": 1550,
      "▁many": 1551,
      "ited": 1552,
      "be": 1553,
      "li": 1554,
      "play": 1555,
      "▁der": 1556,
      "aking": 1557,
      "Com": 1558,
      "▁é": 1559,
      "▁य": 1560,
      "▁श": 1561,
      "man": 1562,
      "▁د": 1563,
      "{\\": 1564,
      "AL": 1565,
      "▁sk": 1566,
      "Name": 1567,
      "gr": 1568,
      "Id": 1569,
      "▁again": 1570,
      "ten": 1571,
      "▁Ar": 1572,
      "▁inform": 1573,
      "alk": 1574,
      "abel": 1575,
      "во": 1576,
      "▁char": 1577,
      "▁bel": 1578,
      "OR": 1579,
      "this": 1580,
      "▁even": 1581,
      "item": 1582,
      "iness": 1583,
      "Cont": 1584,
      "chn": 1585,
      "▁find": 1586,
      "log": 1587,
      "son": 1588,
      "▁person": 1589,
      "▁here": 1590,
      "land": 1591,
      "ão": 1592,
      "▁So": 1593,
      "▁test": 1594,
      "▁way": 1595,
      "▁ke": 1596,
      "▁fil": 1597,
      "ional": 1598,
      "▁You": 1599,
      "ло": 1600,
      "▁help": 1601,
      "▁did": 1602,
      "▁made": 1603,
      "],": 1604,
      "▁cent": 1605,
      "')": 1606,
      "▁different": 1607,
      "▁à": 1608,
      "▁bo": 1609,
      "▁art": 1610,
      "--------": 1611,
      "idth": 1612,
      "List": 1613,
      "ica": 1614,
      "▁br": 1615,
      "gram": 1616,
      "ки": 1617,
      "LE": 1618,
      "].": 1619,
      "ти": 1620,
      "ले": 1621,
      "ample": 1622,
      "▁much": 1623,
      "▁case": 1624,
      "ati": 1625,
      "▁final": 1626,
      "ever": 1627,
      "ince": 1628,
      "ane": 1629,
      "ina": 1630,
      "=\\": 1631,
      "uss": 1632,
      "ene": 1633,
      "ते": 1634,
      "▁bus": 1635,
      "ij": 1636,
      "▁If": 1637,
      "▁same": 1638,
      "ants": 1639,
      "▁les": 1640,
      "eb": 1641,
      "▁para": 1642,
      "cur": 1643,
      "ethod": 1644,
      "▁met": 1645,
      "▁being": 1646,
      "▁som": 1647,
      "irc": 1648,
      "alse": 1649,
      "dd": 1650,
      "▁while": 1651,
      "gy": 1652,
      "cal": 1653,
      "utton": 1654,
      "part": 1655,
      "▁س": 1656,
      "▁process": 1657,
      "да": 1658,
      "Ch": 1659,
      "▁require": 1660,
      "▁giv": 1661,
      "ized": 1662,
      "▁else": 1663,
      "▁tra": 1664,
      "ource": 1665,
      "ار": 1666,
      "att": 1667,
      "▁develop": 1668,
      "▁য": 1669,
      "▁cap": 1670,
      "ன்": 1671,
      "তে": 1672,
      "arn": 1673,
      "fl": 1674,
      "ouse": 1675,
      "▁read": 1676,
      "▁does": 1677,
      "ல்": 1678,
      "▁down": 1679,
      "▁before": 1680,
      "▁জ": 1681,
      "rop": 1682,
      "Ex": 1683,
      "▁X": 1684,
      "▁fr": 1685,
      "▁mark": 1686,
      "ather": 1687,
      "span": 1688,
      "▁main": 1689,
      "htt": 1690,
      "▁incre": 1691,
      "CT": 1692,
      "ital": 1693,
      "▁list": 1694,
      "▁background": 1695,
      "▁इस": 1696,
      "▁rep": 1697,
      "▁product": 1698,
      "▁using": 1699,
      "▁Con": 1700,
      "▁For": 1701,
      "▁design": 1702,
      "िए": 1703,
      "▁\\\\": 1704,
      "▁Sh": 1705,
      "ait": 1706,
      "▁fact": 1707,
      "for": 1708,
      "bo": 1709,
      "কে": 1710,
      "্ব": 1711,
      "raw": 1712,
      "ets": 1713,
      "str": 1714,
      "ть": 1715,
      "ger": 1716,
      "▁!": 1717,
      "ined": 1718,
      "▁day": 1719,
      "oci": 1720,
      "\";": 1721,
      "▁type": 1722,
      "alth": 1723,
      "▁those": 1724,
      "ke": 1725,
      "▁fam": 1726,
      "▁ل": 1727,
      "▁ins": 1728,
      "mathb": 1729,
      "arm": 1730,
      "ars": 1731,
      "▁)": 1732,
      "▁Tr": 1733,
      "pre": 1734,
      "ID": 1735,
      "ason": 1736,
      "▁vis": 1737,
      "_{\\": 1738,
      "ер": 1739,
      "ES": 1740,
      "era": 1741,
      "▁respon": 1742,
      "▁opt": 1743,
      "▁ப": 1744,
      "sw": 1745,
      "িন": 1746,
      "▁du": 1747,
      "ет": 1748,
      "over": 1749,
      "▁cour": 1750,
      "▁think": 1751,
      "वा": 1752,
      "ही": 1753,
      "▁у": 1754,
      "ually": 1755,
      "▁mat": 1756,
      "▁line": 1757,
      "▁men": 1758,
      "▁real": 1759,
      "▁partic": 1760,
      "ames": 1761,
      "ural": 1762,
      "▁effect": 1763,
      "▁aw": 1764,
      "▁found": 1765,
      "eta": 1766,
      "ament": 1767,
      "IT": 1768,
      "▁take": 1769,
      "ght": 1770,
      "▁going": 1771,
      "▁आप": 1772,
      "▁As": 1773,
      "▁last": 1774,
      "yp": 1775,
      "▁da": 1776,
      "ole": 1777,
      "▁die": 1778,
      "Image": 1779,
      "ases": 1780,
      ".\"": 1781,
      "bl": 1782,
      "▁De": 1783,
      "▁na": 1784,
      "ित": 1785,
      "▁pass": 1786,
      "▁Ex": 1787,
      "ness": 1788,
      "na": 1789,
      "हा": 1790,
      "▁best": 1791,
      "ared": 1792,
      "fo": 1793,
      "fe": 1794,
      "indow": 1795,
      "▁फ": 1796,
      "ava": 1797,
      "><": 1798,
      "▁New": 1799,
      "▁both": 1800,
      "ivers": 1801,
      "▁bre": 1802,
      "▁oper": 1803,
      "▁System": 1804,
      "ically": 1805,
      "▁three": 1806,
      "}}": 1807,
      "hes": 1808,
      "itle": 1809,
      "oh": 1810,
      "ref": 1811,
      "ience": 1812,
      "▁water": 1813,
      "▁poss": 1814,
      "▁fin": 1815,
      "▁text": 1816,
      "▁ن": 1817,
      "hor": 1818,
      "▁ف": 1819,
      "ength": 1820,
      "▁ع": 1821,
      "▁great": 1822,
      "▁जा": 1823,
      "▁contin": 1824,
      "rivate": 1825,
      "ters": 1826,
      ".”": 1827,
      "ott": 1828,
      "Cl": 1829,
      "ration": 1830,
      "ral": 1831,
      "▁proble": 1832,
      "roll": 1833,
      "▁Le": 1834,
      "▁quest": 1835,
      "ior": 1836,
      "hip": 1837,
      "ross": 1838,
      "▁por": 1839,
      "egin": 1840,
      "ote": 1841,
      "ustom": 1842,
      "ien": 1843,
      "uf": 1844,
      "▁run": 1845,
      "▁id": 1846,
      "▁true": 1847,
      "cont": 1848,
      "ctor": 1849,
      "▁প্র": 1850,
      "▁Ind": 1851,
      "▁own": 1852,
      "ams": 1853,
      "ization": 1854,
      "▁second": 1855,
      "chool": 1856,
      "urs": 1857,
      "▁स्": 1858,
      "String": 1859,
      "▁க": 1860,
      "▁present": 1861,
      "section": 1862,
      "ron": 1863,
      "▁cle": 1864,
      "ology": 1865,
      "▁सा": 1866,
      "ense": 1867,
      "▁post": 1868,
      "Se": 1869,
      "essage": 1870,
      "pec": 1871,
      "ved": 1872,
      "▁current": 1873,
      "gg": 1874,
      "és": 1875,
      "cript": 1876,
      "ader": 1877,
      "िय": 1878,
      "▁say": 1879,
      "के": 1880,
      "▁prof": 1881,
      "We": 1882,
      "▁state": 1883,
      "▁rest": 1884,
      "px": 1885,
      "bs": 1886,
      "▁print": 1887,
      "▁dem": 1888,
      "ision": 1889,
      "▁>": 1890,
      "ify": 1891,
      "****": 1892,
      "ault": 1893,
      "▁support": 1894,
      "ency": 1895,
      "date": 1896,
      "cul": 1897,
      "ler": 1898,
      "error": 1899,
      "▁order": 1900,
      "mod": 1901,
      "▁world": 1902,
      "▁top": 1903,
      "no": 1904,
      "க்க": 1905,
      "begin": 1906,
      "িক": 1907,
      "▁non": 1908,
      "go": 1909,
      "▁cond": 1910,
      "▁var": 1911,
      "ocument": 1912,
      "▁during": 1913,
      "wh": 1914,
      "ential": 1915,
      "rc": 1916,
      "▁ver": 1917,
      "lex": 1918,
      "▁child": 1919,
      "ny": 1920,
      "▁must": 1921,
      "['": 1922,
      "ule": 1923,
      "▁sl": 1924,
      "ana": 1925,
      "da": 1926,
      "▁view": 1927,
      "div": 1928,
      "ism": 1929,
      "use": 1930,
      "^{\\": 1931,
      "▁open": 1932,
      "less": 1933,
      "ze": 1934,
      "\"]": 1935,
      "AM": 1936,
      "▁ко": 1937,
      "▁information": 1938,
      "ux": 1939,
      "ium": 1940,
      "▁term": 1941,
      "back": 1942,
      "▁а": 1943,
      "▁small": 1944,
      "்ட": 1945,
      "লা": 1946,
      "ccess": 1947,
      "▁program": 1948,
      "ides": 1949,
      "akes": 1950,
      "new": 1951,
      "ivity": 1952,
      "▁Ph": 1953,
      "ists": 1954,
      "▁ने": 1955,
      "je": 1956,
      "ছে": 1957,
      "▁Cl": 1958,
      "से": 1959,
      "▁business": 1960,
      "▁commun": 1961,
      "bers": 1962,
      "ember": 1963,
      "ploy": 1964,
      "ving": 1965,
      "▁consider": 1966,
      "var": 1967,
      "bre": 1968,
      "lection": 1969,
      "▁vol": 1970,
      "duct": 1971,
      "▁life": 1972,
      "▁Pl": 1973,
      "ush": 1974,
      "▁stand": 1975,
      "▁cr": 1976,
      "▁place": 1977,
      "▁শ": 1978,
      "face": 1979,
      "Col": 1980,
      "ंग": 1981,
      "▁direct": 1982,
      "▁um": 1983,
      "▁level": 1984,
      "▁una": 1985,
      "রা": 1986,
      "const": 1987,
      "Res": 1988,
      "SE": 1989,
      "▁ம": 1990,
      "▁techn": 1991,
      "med": 1992,
      "ivid": 1993,
      "▁не": 1994,
      "print": 1995,
      "▁method": 1996,
      "arge": 1997,
      "▁il": 1998,
      "class": 1999,
      "']": 2000,
      "че": 2001,
      "▁static": 2002,
      "by": 2003,
      "td": 2004,
      "▁proper": 2005,
      "....": 2006,
      "লে": 2007,
      "র্": 2008,
      "▁App": 2009,
      "ती": 2010,
      "IC": 2011,
      "টি": 2012,
      "acter": 2013,
      "}(": 2014,
      "ences": 2015,
      "▁build": 2016,
      "▁gre": 2017,
      "arly": 2018,
      "ety": 2019,
      "itions": 2020,
      "To": 2021,
      "ди": 2022,
      "Ar": 2023,
      "▁But": 2024,
      "work": 2025,
      "ique": 2026,
      "ality": 2027,
      "▁model": 2028,
      "ся": 2029,
      "▁organ": 2030,
      "ives": 2031,
      "ara": 2032,
      "▁home": 2033,
      "▁den": 2034,
      "Tr": 2035,
      "▁still": 2036,
      "ும்": 2037,
      "▁थ": 2038,
      "View": 2039,
      "ittle": 2040,
      "▁*/": 2041,
      "▁за": 2042,
      "▁pat": 2043,
      "▁வ": 2044,
      "▁elect": 2045,
      "App": 2046,
      "▁appro": 2047,
      "▁prote": 2048,
      "▁expl": 2049,
      "▁row": 2050,
      "▁dep": 2051,
      "ات": 2052,
      "aterial": 2053,
      "▁एक": 2054,
      "ission": 2055,
      "▁try": 2056,
      "ма": 2057,
      "்ப": 2058,
      "ION": 2059,
      "return": 2060,
      "ves": 2061,
      "ми": 2062,
      "def": 2063,
      "action": 2064,
      "▁care": 2065,
      "▁power": 2066,
      "Text": 2067,
      "ends": 2068,
      "▁week": 2069,
      "বে": 2070,
      "lease": 2071,
      "▁report": 2072,
      "RO": 2073,
      "max": 2074,
      "▁anal": 2075,
      "▁pur": 2076,
      "▁tri": 2077,
      "inc": 2078,
      "த்த": 2079,
      "▁lead": 2080,
      "ля": 2081,
      "▁stre": 2082,
      "▁si": 2083,
      "type": 2084,
      "▁There": 2085,
      "size": 2086,
      "▁er": 2087,
      "▁How": 2088,
      "requ": 2089,
      "▁दे": 2090,
      "ished": 2091,
      "js": 2092,
      "ified": 2093,
      "This": 2094,
      "▁sal": 2095,
      "▁cho": 2096,
      "ور": 2097,
      ",\"": 2098,
      "▁po": 2099,
      "Data": 2100,
      "▁around": 2101,
      "▁Fr": 2102,
      "ación": 2103,
      "$.": 2104,
      "ird": 2105,
      "');": 2106,
      "ways": 2107,
      "net": 2108,
      "ability": 2109,
      "▁к": 2110,
      "▁Col": 2111,
      "▁gl": 2112,
      "eter": 2113,
      "▁imp": 2114,
      "য়ে": 2115,
      "ви": 2116,
      "িত": 2117,
      "ha": 2118,
      "====": 2119,
      "▁গ": 2120,
      "▁perform": 2121,
      "ister": 2122,
      "▁ref": 2123,
      "++": 2124,
      "ру": 2125,
      "▁really": 2126,
      "▁conf": 2127,
      "iron": 2128,
      "▁file": 2129,
      ",”": 2130,
      "comm": 2131,
      "▁important": 2132,
      "arent": 2133,
      "';": 2134,
      "▁field": 2135,
      "▁/>": 2136,
      "▁las": 2137,
      "atic": 2138,
      "ats": 2139,
      "री": 2140,
      "▁‘": 2141,
      "▁interest": 2142,
      "ination": 2143,
      "▁%": 2144,
      "▁cell": 2145,
      "▁ca": 2146,
      "▁private": 2147,
      "▁next": 2148,
      "la": 2149,
      "ली": 2150,
      "resent": 2151,
      "por": 2152,
      "public": 2153,
      "▁On": 2154,
      "roid": 2155,
      "ato": 2156,
      "▁cost": 2157,
      "▁भी": 2158,
      "ideo": 2159,
      "pi": 2160,
      "▁eas": 2161,
      "umn": 2162,
      "orn": 2163,
      "file": 2164,
      "▁`": 2165,
      "arget": 2166,
      "ee": 2167,
      "itor": 2168,
      "ga": 2169,
      "UT": 2170,
      "▁grow": 2171,
      "ference": 2172,
      "▁white": 2173,
      "▁allow": 2174,
      "adi": 2175,
      "bol": 2176,
      "▁Sp": 2177,
      "▁sit": 2178,
      "▁dev": 2179,
      "▁without": 2180,
      "test": 2181,
      "LL": 2182,
      "▁ट": 2183,
      "rem": 2184,
      "▁je": 2185,
      "де": 2186,
      "org": 2187,
      "▁adv": 2188,
      "▁वि": 2189,
      "िया": 2190,
      "ateg": 2191,
      "▁—": 2192,
      "oot": 2193,
      "का": 2194,
      "▁They": 2195,
      "▁free": 2196,
      "▁pot": 2197,
      "▁pop": 2198,
      "▁Be": 2199,
      "ام": 2200,
      "EX": 2201,
      "hi": 2202,
      "▁project": 2203,
      "sub": 2204,
      "As": 2205,
      "ards": 2206,
      "ailable": 2207,
      "रा": 2208,
      "He": 2209,
      "▁tot": 2210,
      "▁ج": 2211,
      "▁log": 2212,
      "▁ভ": 2213,
      "▁light": 2214,
      "ici": 2215,
      "▁ख": 2216,
      "not": 2217,
      "ertain": 2218,
      "▁},": 2219,
      "uro": 2220,
      "▁wom": 2221,
      "▁_": 2222,
      "▁அ": 2223,
      "ais": 2224,
      "▁unt": 2225,
      "▁iss": 2226,
      "ста": 2227,
      "▁head": 2228,
      "▁come": 2229,
      "bar": 2230,
      "▁mult": 2231,
      "ively": 2232,
      "▁invest": 2233,
      "list": 2234,
      "den": 2235,
      "pha": 2236,
      "ords": 2237,
      "▁given": 2238,
      "▁happ": 2239,
      "ception": 2240,
      "oto": 2241,
      "-\\": 2242,
      "▁disc": 2243,
      "stand": 2244,
      "ள்": 2245,
      "▁call": 2246,
      "▁put": 2247,
      "▁तो": 2248,
      "IS": 2249,
      "▁wr": 2250,
      "▁চ": 2251,
      "▁rece": 2252,
      "une": 2253,
      "▁Wh": 2254,
      "▁old": 2255,
      "▁control": 2256,
      "▁ہ": 2257,
      "▁color": 2258,
      "ocial": 2259,
      "▁book": 2260,
      "▁Res": 2261,
      "▁बा": 2262,
      "▁local": 2263,
      "▁another": 2264,
      "bal": 2265,
      "inter": 2266,
      "An": 2267,
      "▁little": 2268,
      "▁following": 2269,
      "nect": 2270,
      "▁vers": 2271,
      "▁ر": 2272,
      "leg": 2273,
      "yd": 2274,
      "za": 2275,
      "uff": 2276,
      "iment": 2277,
      "ours": 2278,
      "ains": 2279,
      "▁bas": 2280,
      "iver": 2281,
      "▁To": 2282,
      "mathbf": 2283,
      "▁lim": 2284,
      "ци": 2285,
      "umber": 2286,
      "িল": 2287,
      "\\]": 2288,
      "time": 2289,
      "▁game": 2290,
      "reg": 2291,
      "By": 2292,
      "CH": 2293,
      "ulation": 2294,
      "ately": 2295,
      "▁aff": 2296,
      "▁month": 2297,
      "▁ide": 2298,
      "▁group": 2299,
      "▁ச": 2300,
      "▁No": 2301,
      "ries": 2302,
      "▁null": 2303,
      "ero": 2304,
      "search": 2305,
      "াক": 2306,
      "▁key": 2307,
      "ando": 2308,
      "lication": 2309,
      "न्": 2310,
      "▁too": 2311,
      "];": 2312,
      "nh": 2313,
      "▁ant": 2314,
      "Val": 2315,
      "▁mov": 2316,
      "▁fun": 2317,
      "\\[": 2318,
      "ന്": 2319,
      "do": 2320,
      "▁few": 2321,
      "▁लिए": 2322,
      "rist": 2323,
      "▁sum": 2324,
      "▁void": 2325,
      "opt": 2326,
      "ama": 2327,
      "Type": 2328,
      "▁про": 2329,
      "sum": 2330,
      "▁ड": 2331,
      "▁پ": 2332,
      "াল": 2333,
      "ems": 2334,
      "load": 2335,
      "▁eng": 2336,
      "path": 2337,
      "▁since": 2338,
      "ka": 2339,
      "lete": 2340,
      "▁Ad": 2341,
      "▁against": 2342,
      "▁All": 2343,
      "▁less": 2344,
      "ிய": 2345,
      "▁hum": 2346,
      "▁বি": 2347,
      "serv": 2348,
      "util": 2349,
      "▁pay": 2350,
      "▁within": 2351,
      "▁change": 2352,
      "▁sw": 2353,
      "▁document": 2354,
      "icle": 2355,
      "াম": 2356,
      "ks": 2357,
      "▁En": 2358,
      "ape": 2359,
      "▁?": 2360,
      "▁த": 2361,
      "▁Amer": 2362,
      "▁Comm": 2363,
      "user": 2364,
      "pport": 2365,
      "▁occ": 2366,
      "▁fac": 2367,
      "Al": 2368,
      "▁son": 2369,
      "ued": 2370,
      "AS": 2371,
      "▁Co": 2372,
      "ya": 2373,
      "mathcal": 2374,
      "▁Is": 2375,
      "▁Bl": 2376,
      "یں": 2377,
      "▁left": 2378,
      "iqu": 2379,
      "मा": 2380,
      "ल्": 2381,
      "▁ч": 2382,
      "string": 2383,
      "▁ра": 2384,
      "▁manag": 2385,
      "▁ener": 2386,
      "ेश": 2387,
      "мо": 2388,
      "aper": 2389,
      "▁four": 2390,
      "ches": 2391,
      "ume": 2392,
      "▁super": 2393,
      "value": 2394,
      "ling": 2395,
      "mrow": 2396,
      "iod": 2397,
      "▁chang": 2398,
      "ین": 2399,
      "order": 2400,
      "▁custom": 2401,
      "UR": 2402,
      "ought": 2403,
      "▁health": 2404,
      "nment": 2405,
      "ET": 2406,
      "itive": 2407,
      "▁Or": 2408,
      "गा": 2409,
      "ided": 2410,
      "▁port": 2411,
      "sole": 2412,
      "ED": 2413,
      "▁expect": 2414,
      "ired": 2415,
      "▁false": 2416,
      "▁mot": 2417,
      "▁sing": 2418,
      "▁Pr": 2419,
      "▁leg": 2420,
      "по": 2421,
      "▁हम": 2422,
      "ino": 2423,
      "ording": 2424,
      "▁size": 2425,
      "▁check": 2426,
      "input": 2427,
      "▁ه": 2428,
      "ás": 2429,
      "▁user": 2430,
      "▁mus": 2431,
      "▁things": 2432,
      "▁area": 2433,
      "▁team": 2434,
      "ayer": 2435,
      "▁market": 2436,
      "thing": 2437,
      "men": 2438,
      "ரு": 2439,
      "▁including": 2440,
      "▁hist": 2441,
      "▁mag": 2442,
      "त्र": 2443,
      "().": 2444,
      "▁ben": 2445,
      "ump": 2446,
      "erc": 2447,
      "af": 2448,
      "ர்": 2449,
      "ui": 2450,
      "url": 2451,
      "ست": 2452,
      "ething": 2453,
      "})": 2454,
      "▁large": 2455,
      "▁struct": 2456,
      "CO": 2457,
      "ift": 2458,
      "▁ann": 2459,
      "▁event": 2460,
      "▁ret": 2461,
      "▁always": 2462,
      "▁meas": 2463,
      "{~": 2464,
      "्व": 2465,
      "AD": 2466,
      "kt": 2467,
      "ड़": 2468,
      "नी": 2469,
      "ised": 2470,
      "▁image": 2471,
      "uck": 2472,
      "▁might": 2473,
      "▁Te": 2474,
      "▁ка": 2475,
      "ived": 2476,
      "vious": 2477,
      "key": 2478,
      "▁path": 2479,
      "▁better": 2480,
      "▁Mar": 2481,
      "alpha": 2482,
      "▁string": 2483,
      "uild": 2484,
      "▁উ": 2485,
      "ico": 2486,
      "▁available": 2487,
      "▁gover": 2488,
      "ja": 2489,
      "▁turn": 2490,
      "label": 2491,
      "ently": 2492,
      "viron": 2493,
      "▁inc": 2494,
      "▁object": 2495,
      "▁ele": 2496,
      "prime": 2497,
      "ror": 2498,
      "ances": 2499,
      "$,": 2500,
      "function": 2501,
      "▁init": 2502,
      "aster": 2503,
      "ope": 2504,
      "▁redu": 2505,
      "▁got": 2506,
      "='": 2507,
      "conom": 2508,
      "▁service": 2509,
      "ন্": 2510,
      "ون": 2511,
      "ocus": 2512,
      "array": 2513,
      "▁keep": 2514,
      "vert": 2515,
      "ía": 2516,
      "▁addition": 2517,
      "▁vi": 2518,
      "▁train": 2519,
      "ili": 2520,
      "▁fore": 2521,
      "ymbol": 2522,
      "▁family": 2523,
      "ially": 2524,
      "▁বা": 2525,
      "){": 2526,
      "▁beh": 2527,
      "▁school": 2528,
      "ails": 2529,
      "($": 2530,
      "▁ش": 2531,
      "}$.": 2532,
      "ida": 2533,
      "▁ce": 2534,
      "▁ein": 2535,
      "▁results": 2536,
      "ния": 2537,
      "iles": 2538,
      "ப்ப": 2539,
      "ification": 2540,
      "▁break": 2541,
      "For": 2542,
      "from": 2543,
      "▁company": 2544,
      "rict": 2545,
      "ering": 2546,
      "▁tre": 2547,
      "▁ident": 2548,
      "▁orig": 2549,
      "ros": 2550,
      "py": 2551,
      "▁String": 2552,
      "து": 2553,
      "ति": 2554,
      "ention": 2555,
      "▁mar": 2556,
      "▁space": 2557,
      "▁total": 2558,
      "▁இ": 2559,
      "pped": 2560,
      "▁material": 2561,
      "ोग": 2562,
      "▁big": 2563,
      "uy": 2564,
      "iversity": 2565,
      "box": 2566,
      "outh": 2567,
      "gen": 2568,
      "button": 2569,
      "ession": 2570,
      "▁determ": 2571,
      "দের": 2572,
      "же": 2573,
      "https": 2574,
      "▁dr": 2575,
      "met": 2576,
      "ended": 2577,
      "▁~": 2578,
      "ably": 2579,
      "ante": 2580,
      "oss": 2581,
      "EXT": 2582,
      "▁give": 2583,
      "▁अप": 2584,
      "][": 2585,
      "OT": 2586,
      "▁full": 2587,
      "></": 2588,
      "бо": 2589,
      "▁US": 2590,
      "▁example": 2591,
      "sk": 2592,
      "▁arg": 2593,
      "ormal": 2594,
      "####": 2595,
      "▁fri": 2596,
      "▁feel": 2597,
      "iter": 2598,
      "▁Man": 2599,
      "ured": 2600,
      "▁land": 2601,
      "icon": 2602,
      "▁bro": 2603,
      "▁red": 2604,
      "lish": 2605,
      "▁lot": 2606,
      "▁এক": 2607,
      "▁problem": 2608,
      "oper": 2609,
      "▁до": 2610,
      "▁ill": 2611,
      "▁mill": 2612,
      "▁something": 2613,
      "▁sever": 2614,
      "▁whe": 2615,
      "idad": 2616,
      "▁--": 2617,
      "mail": 2618,
      "▁create": 2619,
      "aces": 2620,
      "▁law": 2621,
      "ribut": 2622,
      "ury": 2623,
      "ley": 2624,
      "▁She": 2625,
      "▁নি": 2626,
      "हे": 2627,
      "elta": 2628,
      "``": 2629,
      "▁success": 2630,
      "▁max": 2631,
      "':": 2632,
      "▁table": 2633,
      "▁air": 2634,
      "crib": 2635,
      "ression": 2636,
      "▁pour": 2637,
      "={": 2638,
      "ables": 2639,
      "▁At": 2640,
      "oney": 2641,
      "iff": 2642,
      "ids": 2643,
      "▁range": 2644,
      "opy": 2645,
      "aim": 2646,
      "ouble": 2647,
      "ме": 2648,
      "ples": 2649,
      "सी": 2650,
      "▁hard": 2651,
      "ந்த": 2652,
      "▁possible": 2653,
      "▁ந": 2654,
      "▁prim": 2655,
      "Mod": 2656,
      "▁net": 2657,
      "pack": 2658,
      "हीं": 2659,
      "▁tak": 2660,
      "po": 2661,
      "index": 2662,
      "AP": 2663,
      "▁वा": 2664,
      "ita": 2665,
      "}+": 2666,
      "ograph": 2667,
      "▁days": 2668,
      "ending": 2669,
      "до": 2670,
      "▁CO": 2671,
      "▁Eng": 2672,
      "▁enc": 2673,
      "aint": 2674,
      "▁diff": 2675,
      "▁ge": 2676,
      "way": 2677,
      "▁side": 2678,
      "▁ask": 2679,
      "га": 2680,
      "arrow": 2681,
      "ww": 2682,
      "pper": 2683,
      "enn": 2684,
      "ाम": 2685,
      "▁press": 2686,
      "ве": 2687,
      "urther": 2688,
      "▁mean": 2689,
      "width": 2690,
      "▁सं": 2691,
      "cd": 2692,
      "acy": 2693,
      "itch": 2694,
      "াহ": 2695,
      "▁э": 2696,
      "));": 2697,
      "igure": 2698,
      "ones": 2699,
      "cle": 2700,
      "./": 2701,
      "▁bi": 2702,
      "nal": 2703,
      "Ind": 2704,
      "includ": 2705,
      "্ষ": 2706,
      "▁experience": 2707,
      "▁low": 2708,
      "Ob": 2709,
      "ura": 2710,
      "▁});": 2711,
      "▁kind": 2712,
      "ido": 2713,
      "AC": 2714,
      "orth": 2715,
      "ക്": 2716,
      "```": 2717,
      "▁Su": 2718,
      "▁indust": 2719,
      "mp": 2720,
      "▁based": 2721,
      "atus": 2722,
      "ican": 2723,
      "্ট": 2724,
      "fect": 2725,
      "ources": 2726,
      "▁flow": 2727,
      "▁..": 2728,
      "▁offer": 2729,
      "En": 2730,
      "▁plan": 2731,
      "▁&&": 2732,
      "}=": 2733,
      "respon": 2734,
      "▁able": 2735,
      "▁employ": 2736,
      "atter": 2737,
      "▁circ": 2738,
      "তি": 2739,
      "Pl": 2740,
      "creen": 2741,
      "▁body": 2742,
      "ev": 2743,
      "▁input": 2744,
      "ில்": 2745,
      "atures": 2746,
      "irt": 2747,
      "▁study": 2748,
      "▁impro": 2749,
      "equ": 2750,
      "ream": 2751,
      "▁never": 2752,
      "mu": 2753,
      "▁represent": 2754,
      "bt": 2755,
      "ட்ட": 2756,
      "▁cu": 2757,
      "ção": 2758,
      "ние": 2759,
      "▁called": 2760,
      "▁Gr": 2761,
      "arr": 2762,
      "dis": 2763,
      "▁black": 2764,
      "▁love": 2765,
      "plic": 2766,
      "▁prom": 2767,
      "▁hold": 2768,
      "www": 2769,
      "▁ris": 2770,
      "nder": 2771,
      "ayout": 2772,
      "ffic": 2773,
      "▁La": 2774,
      "▁inte": 2775,
      "rt": 2776,
      "▁social": 2777,
      "▁energy": 2778,
      "▁due": 2779,
      "▁food": 2780,
      "कर": 2781,
      "▁times": 2782,
      "IM": 2783,
      "icro": 2784,
      "lected": 2785,
      "aps": 2786,
      "▁above": 2787,
      "ready": 2788,
      "▁«": 2789,
      "▁со": 2790,
      "On": 2791,
      "lt": 2792,
      "▁far": 2793,
      "ories": 2794,
      "▁Br": 2795,
      "▁hal": 2796,
      "▁Qu": 2797,
      "্যা": 2798,
      "▁typ": 2799,
      "kan": 2800,
      "▁mom": 2801,
      "▁access": 2802,
      "▁special": 2803,
      "▁pract": 2804,
      "Un": 2805,
      "aff": 2806,
      "AG": 2807,
      "HE": 2808,
      "िन": 2809,
      "▁won": 2810,
      "place": 2811,
      "])": 2812,
      "ponent": 2813,
      "▁ter": 2814,
      "▁जो": 2815,
      "▁exc": 2816,
      "ür": 2817,
      "ini": 2818,
      "----------------": 2819,
      "▁means": 2820,
      "्ट": 2821,
      "▁short": 2822,
      "▁nat": 2823,
      "▁gen": 2824,
      "Wh": 2825,
      "▁yang": 2826,
      "▁move": 2827,
      "ervice": 2828,
      "▁beg": 2829,
      "vironment": 2830,
      "▁nh": 2831,
      "ohn": 2832,
      "▁respect": 2833,
      "head": 2834,
      "▁रा": 2835,
      "imal": 2836,
      "▁ste": 2837,
      "▁sat": 2838,
      "ih": 2839,
      "hold": 2840,
      "ത്": 2841,
      "amma": 2842,
      "▁!=": 2843,
      "▁working": 2844,
      "ieve": 2845,
      "▁period": 2846,
      "▁provide": 2847,
      "abor": 2848,
      "▁exist": 2849,
      "ING": 2850,
      "▁flo": 2851,
      "▁htt": 2852,
      "ither": 2853,
      "▁fa": 2854,
      "http": 2855,
      "▁rowspan": 2856,
      "src": 2857,
      "cer": 2858,
      "If": 2859,
      "quest": 2860,
      "count": 2861,
      "▁stock": 2862,
      "▁shall": 2863,
      "▁request": 2864,
      "off": 2865,
      "Time": 2866,
      "सा": 2867,
      "▁dan": 2868,
      "ysis": 2869,
      "▁general": 2870,
      "▁cou": 2871,
      "▁character": 2872,
      "▁hig": 2873,
      "▁meet": 2874,
      "epend": 2875,
      "▁El": 2876,
      "▁prob": 2877,
      "াই": 2878,
      "oll": 2879,
      "▁dans": 2880,
      "▁account": 2881,
      "param": 2882,
      "link": 2883,
      "▁individ": 2884,
      "ND": 2885,
      "▁amount": 2886,
      "User": 2887,
      "▁sem": 2888,
      "▁sure": 2889,
      "▁cover": 2890,
      "▁country": 2891,
      "▁ले": 2892,
      "اد": 2893,
      "ры": 2894,
      "▁;": 2895,
      "sem": 2896,
      "side": 2897,
      "сти": 2898,
      "को": 2899,
      "▁What": 2900,
      "▁या": 2901,
      "aring": 2902,
      "ula": 2903,
      "ware": 2904,
      "▁comb": 2905,
      "ste": 2906,
      ".)": 2907,
      "mit": 2908,
      "▁neg": 2909,
      "▁talk": 2910,
      ")\\": 2911,
      "Item": 2912,
      "▁development": 2913,
      "su": 2914,
      "▁plus": 2915,
      "▁ang": 2916,
      "ude": 2917,
      "▁step": 2918,
      "va": 2919,
      "ett": 2920,
      "rel": 2921,
      "cription": 2922,
      "mn": 2923,
      "▁ও": 2924,
      "angle": 2925,
      "ored": 2926,
      "▁الم": 2927,
      "ager": 2928,
      "hr": 2929,
      "igned": 2930,
      "▁particular": 2931,
      "نا": 2932,
      "сто": 2933,
      "▁question": 2934,
      "▁Che": 2935,
      "lobal": 2936,
      "ول": 2937,
      "▁maj": 2938,
      "▁position": 2939,
      "▁children": 2940,
      "ounter": 2941,
      "sl": 2942,
      "roller": 2943,
      "swer": 2944,
      "arl": 2945,
      "zy": 2946,
      "▁qui": 2947,
      "▁video": 2948,
      "init": 2949,
      "ender": 2950,
      "▁abs": 2951,
      "}$,": 2952,
      "▁certain": 2953,
      "ENT": 2954,
      "▁uh": 2955,
      "mat": 2956,
      "apt": 2957,
      "▁research": 2958,
      "▁fut": 2959,
      "ilar": 2960,
      "▁dat": 2961,
      "▁width": 2962,
      "▁having": 2963,
      "ands": 2964,
      "▁С": 2965,
      "ます": 2966,
      "▁pri": 2967,
      "си": 2968,
      "▁Cont": 2969,
      "▁action": 2970,
      "▁সম": 2971,
      "▁dé": 2972,
      "ambda": 2973,
      "pping": 2974,
      "ча": 2975,
      "ंद": 2976,
      "▁[]": 2977,
      "▁room": 2978,
      "▁values": 2979,
      "▁treat": 2980,
      "▁That": 2981,
      "▁pas": 2982,
      "▁পর": 2983,
      "▁کی": 2984,
      "ores": 2985,
      "▁<<": 2986,
      "irl": 2987,
      "olution": 2988,
      "ldots": 2989,
      "▁от": 2990,
      "▁Sc": 2991,
      "хо": 2992,
      "oad": 2993,
      "▁при": 2994,
      "thers": 2995,
      "IG": 2996,
      "ंड": 2997,
      "now": 2998,
      "iving": 2999,
      "▁सम": 3000,
      "color": 3001,
      "iled": 3002,
      "▁course": 3003,
      "▁content": 3004,
      "▁नहीं": 3005,
      "idd": 3006,
      "ison": 3007,
      "▁along": 3008,
      "icy": 3009,
      "ione": 3010,
      "▁obtain": 3011,
      "unt": 3012,
      "▁Am": 3013,
      "▁contain": 3014,
      "eral": 3015,
      "▁already": 3016,
      "word": 3017,
      "ache": 3018,
      "▁services": 3019,
      "rect": 3020,
      "rror": 3021,
      "loc": 3022,
      "▁র": 3023,
      "img": 3024,
      "ito": 3025,
      "▁When": 3026,
      "▁van": 3027,
      "▁done": 3028,
      "▁bar": 3029,
      "▁Cent": 3030,
      "▁trad": 3031,
      "ption": 3032,
      "कार": 3033,
      "▁display": 3034,
      "ibr": 3035,
      "Button": 3036,
      "▁une": 3037,
      "Size": 3038,
      "▁vo": 3039,
      "idence": 3040,
      "start": 3041,
      "▁П": 3042,
      "▁making": 3043,
      "ados": 3044,
      "Form": 3045,
      "ня": 3046,
      "▁offic": 3047,
      "You": 3048,
      "чи": 3049,
      "▁understand": 3050,
      "ales": 3051,
      "िस": 3052,
      "▁е": 3053,
      "uration": 3054,
      "▁fund": 3055,
      "\".": 3056,
      "▁দে": 3057,
      "▁clos": 3058,
      "ched": 3059,
      "▁Me": 3060,
      "style": 3061,
      "andom": 3062,
      "body": 3063,
      "▁করে": 3064,
      "yt": 3065,
      "AB": 3066,
      "clus": 3067,
      "▁past": 3068,
      "stit": 3069,
      "book": 3070,
      "▁toget": 3071,
      "▁response": 3072,
      "▁Im": 3073,
      "dict": 3074,
      "▁together": 3075,
      "▁complet": 3076,
      "oin": 3077,
      "pg": 3078,
      "▁Min": 3079,
      "irm": 3080,
      "▁τ": 3081,
      "ায়": 3082,
      "ুর": 3083,
      "ilit": 3084,
      "▁dom": 3085,
      "за": 3086,
      "क्ष": 3087,
      "imum": 3088,
      "▁necess": 3089,
      "▁signific": 3090,
      "using": 3091,
      "ibility": 3092,
      "ills": 3093,
      "icht": 3094,
      "▁temper": 3095,
      "lev": 3096,
      "▁until": 3097,
      "▁ح": 3098,
      "▁ي": 3099,
      "িয়": 3100,
      "▁dri": 3101,
      "ension": 3102,
      "▁bit": 3103,
      "▁page": 3104,
      "▁como": 3105,
      "ुर": 3106,
      "▁close": 3107,
      "▁Pol": 3108,
      "ên": 3109,
      "স্ত": 3110,
      "▁ही": 3111,
      "State": 3112,
      "Element": 3113,
      "▁indic": 3114,
      "ку": 3115,
      "▁об": 3116,
      "▁style": 3117,
      "US": 3118,
      "length": 3119,
      "sel": 3120,
      "▁away": 3121,
      "▁В": 3122,
      "ties": 3123,
      "▁today": 3124,
      "се": 3125,
      "indows": 3126,
      "त्": 3127,
      "Par": 3128,
      "CC": 3129,
      "▁activ": 3130,
      "▁several": 3131,
      "اب": 3132,
      "And": 3133,
      "▁Cal": 3134,
      "Value": 3135,
      "▁rate": 3136,
      "▁dig": 3137,
      "Sh": 3138,
      "ای": 3139,
      "iful": 3140,
      "▁individual": 3141,
      "▁থ": 3142,
      "▁These": 3143,
      "oud": 3144,
      "uation": 3145,
      "ken": 3146,
      "board": 3147,
      "▁University": 3148,
      "▁required": 3149,
      "্থ": 3150,
      "▁cas": 3151,
      "▁mo": 3152,
      "▁However": 3153,
      "uel": 3154,
      "▁house": 3155,
      "orld": 3156,
      "▁เ": 3157,
      "EM": 3158,
      "lor": 3159,
      "▁کے": 3160,
      "▁single": 3161,
      "umer": 3162,
      "▁ti": 3163,
      "pat": 3164,
      "▁error": 3165,
      "▁т": 3166,
      "▁पा": 3167,
      "▁econom": 3168,
      "sv": 3169,
      "▁في": 3170,
      "▁Ab": 3171,
      "▁lik": 3172,
      "ano": 3173,
      "({": 3174,
      "rodu": 3175,
      "▁г": 3176,
      "ye": 3177,
      "rite": 3178,
      "amos": 3179,
      "ief": 3180,
      "}^{\\": 3181,
      "▁looking": 3182,
      "ruction": 3183,
      "▁young": 3184,
      "html": 3185,
      "▁Mr": 3186,
      "▁often": 3187,
      "▁strong": 3188,
      "▁says": 3189,
      "ée": 3190,
      "▁cult": 3191,
      "ella": 3192,
      "▁creat": 3193,
      "ente": 3194,
      "▁job": 3195,
      "▁appear": 3196,
      "ney": 3197,
      "▁least": 3198,
      "▁Can": 3199,
      "▁sus": 3200,
      "ules": 3201,
      "File": 3202,
      "vis": 3203,
      "▁include": 3204,
      "▁link": 3205,
      "urch": 3206,
      "▁city": 3207,
      "▁ess": 3208,
      "▁later": 3209,
      "▁thing": 3210,
      "▁products": 3211,
      "chen": 3212,
      "▁focus": 3213,
      "िल": 3214,
      "ну": 3215,
      "▁larg": 3216,
      "▁why": 3217,
      "Add": 3218,
      "autiful": 3219,
      "arning": 3220,
      "▁Par": 3221,
      "ங்க": 3222,
      "light": 3223,
      "▁known": 3224,
      "▁base": 3225,
      "▁আম": 3226,
      "▁With": 3227,
      "▁invol": 3228,
      "▁au": 3229,
      "ding": 3230,
      "script": 3231,
      "▁mit": 3232,
      "▁seg": 3233,
      "▁го": 3234,
      "▁hab": 3235,
      "ani": 3236,
      "▁мо": 3237,
      "án": 3238,
      "▁describ": 3239,
      "omet": 3240,
      "main": 3241,
      "▁यह": 3242,
      "All": 3243,
      "▁là": 3244,
      "▁State": 3245,
      "▁human": 3246,
      "▁IN": 3247,
      "angu": 3248,
      "▁discuss": 3249,
      "title": 3250,
      "▁government": 3251,
      "▁os": 3252,
      "OD": 3253,
      "ising": 3254,
      "state": 3255,
      "▁من": 3256,
      "▁Sch": 3257,
      "Le": 3258,
      "wards": 3259,
      "▁author": 3260,
      "▁Ass": 3261,
      "▁major": 3262,
      "▁benef": 3263,
      "াত": 3264,
      "▁sent": 3265,
      "▁та": 3266,
      "fil": 3267,
      "▁خ": 3268,
      "ln": 3269,
      "▁मा": 3270,
      "ua": 3271,
      "▁students": 3272,
      "▁money": 3273,
      "post": 3274,
      "map": 3275,
      "${": 3276,
      "▁то": 3277,
      "query": 3278,
      "▁href": 3279,
      "ைய": 3280,
      "cy": 3281,
      "▁reason": 3282,
      "((": 3283,
      "ca": 3284,
      "Qu": 3285,
      "▁mer": 3286,
      "ators": 3287,
      "▁ф": 3288,
      "▁এব": 3289,
      "ips": 3290,
      "▁become": 3291,
      "$\\": 3292,
      "▁Med": 3293,
      "▁pack": 3294,
      "▁members": 3295,
      "▁comput": 3296,
      "▁पह": 3297,
      "▁points": 3298,
      "াস": 3299,
      "▁conc": 3300,
      "raft": 3301,
      "elt": 3302,
      "▁original": 3303,
      "image": 3304,
      "▁thought": 3305,
      "▁pa": 3306,
      "my": 3307,
      "pen": 3308,
      "▁TEXT": 3309,
      "▁kh": 3310,
      "▁infl": 3311,
      "▁param": 3312,
      "▁calcul": 3313,
      "▁Des": 3314,
      "ios": 3315,
      "istic": 3316,
      "ille": 3317,
      "rap": 3318,
      "imate": 3319,
      "ena": 3320,
      "De": 3321,
      "▁cam": 3322,
      "▁+=": 3323,
      "▁upon": 3324,
      "▁quality": 3325,
      "plement": 3326,
      "▁phys": 3327,
      "▁target": 3328,
      "▁observ": 3329,
      "osp": 3330,
      "▁Car": 3331,
      "utes": 3332,
      "▁pub": 3333,
      "IL": 3334,
      "して": 3335,
      "▁section": 3336,
      "▁compon": 3337,
      "▁pod": 3338,
      "▁educ": 3339,
      "াব": 3340,
      "स्ट": 3341,
      "▁further": 3342,
      "cret": 3343,
      "▁gi": 3344,
      "▁win": 3345,
      "////": 3346,
      "lished": 3347,
      "▁dire": 3348,
      "▁ou": 3349,
      "where": 3350,
      "▁Christ": 3351,
      "room": 3352,
      "▁May": 3353,
      "OS": 3354,
      "▁block": 3355,
      "▁${": 3356,
      "beta": 3357,
      "▁mor": 3358,
      "IR": 3359,
      "Path": 3360,
      "▁similar": 3361,
      "ائ": 3362,
      "▁whether": 3363,
      "▁common": 3364,
      "lar": 3365,
      "Man": 3366,
      "********": 3367,
      "rown": 3368,
      "vo": 3369,
      "ports": 3370,
      "▁connect": 3371,
      "Object": 3372,
      "rix": 3373,
      "most": 3374,
      "▁ng": 3375,
      "▁compet": 3376,
      "iones": 3377,
      "}{\\": 3378,
      "ুল": 3379,
      "ync": 3380,
      "▁relations": 3381,
      "▁ri": 3382,
      "én": 3383,
      "▁phot": 3384,
      "▁price": 3385,
      "des": 3386,
      "EL": 3387,
      "▁illust": 3388,
      "▁किया": 3389,
      "ony": 3390,
      "▁К": 3391,
      "▁face": 3392,
      "▁code": 3393,
      "ির": 3394,
      "▁hom": 3395,
      "ival": 3396,
      "true": 3397,
      "▁Per": 3398,
      "▁community": 3399,
      "ين": 3400,
      "phi": 3401,
      "▁future": 3402,
      "▁colspan": 3403,
      "alt": 3404,
      "df": 3405,
      "Box": 3406,
      "Get": 3407,
      "▁element": 3408,
      "▁season": 3409,
      "avor": 3410,
      "ube": 3411,
      "tem": 3412,
      "▁mass": 3413,
      "со": 3414,
      "▁John": 3415,
      "igma": 3416,
      "▁ق": 3417,
      "▁across": 3418,
      "mon": 3419,
      "▁नि": 3420,
      "▁address": 3421,
      "ilities": 3422,
      "▁record": 3423,
      "▁associ": 3424,
      "▁hot": 3425,
      "▁below": 3426,
      "▁dest": 3427,
      "gress": 3428,
      "▁во": 3429,
      "ster": 3430,
      "▁Ag": 3431,
      "▁site": 3432,
      "▁date": 3433,
      "Exception": 3434,
      "▁potential": 3435,
      "ii": 3436,
      "▁bring": 3437,
      "▁das": 3438,
      "▁conditions": 3439,
      "▁এবং": 3440,
      "▁respons": 3441,
      "▁tell": 3442,
      "ogle": 3443,
      "asing": 3444,
      "verage": 3445,
      "▁night": 3446,
      "▁org": 3447,
      "ils": 3448,
      "▁learn": 3449,
      "}=\\": 3450,
      "ше": 3451,
      "uz": 3452,
      "▁environment": 3453,
      "ilt": 3454,
      "urope": 3455,
      "used": 3456,
      "▁हु": 3457,
      "itted": 3458,
      "की": 3459,
      ")(": 3460,
      "لا": 3461,
      "▁espec": 3462,
      "▁cut": 3463,
      "umb": 3464,
      "▁solution": 3465,
      "());": 3466,
      "fort": 3467,
      "▁Cor": 3468,
      "len": 3469,
      "лу": 3470,
      "▁crit": 3471,
      "▁seen": 3472,
      "position": 3473,
      "utions": 3474,
      "▁polit": 3475,
      "sq": 3476,
      "▁either": 3477,
      "ду": 3478,
      "▁moment": 3479,
      "though": 3480,
      "▁font": 3481,
      "▁bir": 3482,
      ")=": 3483,
      "Color": 3484,
      "lambda": 3485,
      "▁எ": 3486,
      "▁enough": 3487,
      "iam": 3488,
      "▁online": 3489,
      "▁doing": 3490,
      "▁exam": 3491,
      "▁آ": 3492,
      "▁five": 3493,
      "Error": 3494,
      "▁concept": 3495,
      "▁others": 3496,
      "With": 3497,
      "▁$(": 3498,
      "▁array": 3499,
      "Event": 3500,
      "▁दो": 3501,
      "▁Ste": 3502,
      "Key": 3503,
      "▁ma": 3504,
      "▁shown": 3505,
      "▁أ": 3506,
      "())": 3507,
      "Bl": 3508,
      "ora": 3509,
      "ades": 3510,
      "quad": 3511,
      "ober": 3512,
      "ско": 3513,
      "ki": 3514,
      "pportun": 3515,
      "PI": 3516,
      "▁visit": 3517,
      "pose": 3518,
      "сь": 3519,
      "▁Act": 3520,
      "come": 3521,
      "circ": 3522,
      "▁taken": 3523,
      "Or": 3524,
      "ribute": 3525,
      "▁ist": 3526,
      "▁previous": 3527,
      "▁writ": 3528,
      "गे": 3529,
      "▁specific": 3530,
      "earch": 3531,
      "Index": 3532,
      "নে": 3533,
      "resh": 3534,
      "ological": 3535,
      "ols": 3536,
      "cho": 3537,
      "▁soft": 3538,
      "▁claim": 3539,
      "▁review": 3540,
      "▁near": 3541,
      "▁div": 3542,
      "्च": 3543,
      "ottom": 3544,
      "▁camp": 3545,
      "▁index": 3546,
      "した": 3547,
      "▁needs": 3548,
      "▁wall": 3549,
      "▁vector": 3550,
      "▁My": 3551,
      "▁ك": 3552,
      "▁increase": 3553,
      "▁console": 3554,
      "ali": 3555,
      "ULL": 3556,
      "____": 3557,
      "▁height": 3558,
      "▁सक": 3559,
      "ogn": 3560,
      "▁estab": 3561,
      "▁sche": 3562,
      "▁Ge": 3563,
      "▁von": 3564,
      "iple": 3565,
      "▁sam": 3566,
      "▁version": 3567,
      "▁ছ": 3568,
      "lick": 3569,
      "▁inf": 3570,
      "▁among": 3571,
      "▁various": 3572,
      "▁pers": 3573,
      "▁Do": 3574,
      "ounds": 3575,
      "▁sugg": 3576,
      "▁personal": 3577,
      "oute": 3578,
      "▁Ne": 3579,
      "java": 3580,
      "▁करने": 3581,
      "▁clear": 3582,
      "ند": 3583,
      "icult": 3584,
      "▁integr": 3585,
      "Ph": 3586,
      "▁Dr": 3587,
      "▁came": 3588,
      "ाइ": 3589,
      "▁makes": 3590,
      "▁percent": 3591,
      "nection": 3592,
      "field": 3593,
      "▁Bo": 3594,
      "▁ten": 3595,
      "му": 3596,
      "unch": 3597,
      "ni": 3598,
      "▁ই": 3599,
      "▁suggest": 3600,
      "olds": 3601,
      "▁Ed": 3602,
      "mathbb": 3603,
      "ba": 3604,
      "▁series": 3605,
      "▁simple": 3606,
      "▁women": 3607,
      "▁deg": 3608,
      "ác": 3609,
      "ried": 3610,
      "▁না": 3611,
      "ette": 3612,
      "▁sens": 3613,
      "ंच": 3614,
      "▁tw": 3615,
      "ın": 3616,
      "package": 3617,
      "▁message": 3618,
      "ét": 3619,
      "ML": 3620,
      "▁ir": 3621,
      "▁once": 3622,
      "uly": 3623,
      "ges": 3624,
      "▁million": 3625,
      "gl": 3626,
      "▁paper": 3627,
      "▁mi": 3628,
      "▁significant": 3629,
      "apter": 3630,
      "font": 3631,
      "empt": 3632,
      "aur": 3633,
      "ন্য": 3634,
      "▁though": 3635,
      "▁cases": 3636,
      "Context": 3637,
      "vec": 3638,
      "▁OF": 3639,
      "▁United": 3640,
      "ceed": 3641,
      "ixed": 3642,
      "▁actually": 3643,
      "amente": 3644,
      "▁front": 3645,
      "astic": 3646,
      "▁Gu": 3647,
      "▁sil": 3648,
      "▁early": 3649,
      "▁था": 3650,
      "iding": 3651,
      "です": 3652,
      "▁war": 3653,
      "▁begin": 3654,
      "chan": 3655,
      "▁One": 3656,
      "▁Reg": 3657,
      "▁word": 3658,
      "medi": 3659,
      "▁subject": 3660,
      "▁pan": 3661,
      "▁contact": 3662,
      "create": 3663,
      "▁II": 3664,
      "minist": 3665,
      "▁mind": 3666,
      "ops": 3667,
      "▁American": 3668,
      "ribution": 3669,
      "▁property": 3670,
      "▁analysis": 3671,
      "joy": 3672,
      "▁box": 3673,
      "mas": 3674,
      "========": 3675,
      "mark": 3676,
      "api": 3677,
      "▁default": 3678,
      "▁\"\"": 3679,
      "▁घ": 3680,
      "па": 3681,
      "Date": 3682,
      "▁err": 3683,
      "hib": 3684,
      "▁however": 3685,
      "ारी": 3686,
      "anks": 3687,
      "urb": 3688,
      "What": 3689,
      "▁ber": 3690,
      "▁ре": 3691,
      "OG": 3692,
      "▁.,": 3693,
      "Test": 3694,
      "Pre": 3695,
      "cm": 3696,
      "▁whole": 3697,
      "▁मु": 3698,
      "atform": 3699,
      "ham": 3700,
      "ged": 3701,
      "▁ap": 3702,
      "ball": 3703,
      "year": 3704,
      "ites": 3705,
      "▁Intern": 3706,
      "▁network": 3707,
      "ises": 3708,
      "result": 3709,
      "▁heart": 3710,
      "▁load": 3711,
      "iddle": 3712,
      "Aut": 3713,
      "▁{\"": 3714,
      "▁higher": 3715,
      "▁যে": 3716,
      "▁buy": 3717,
      "▁lower": 3718,
      "▁production": 3719,
      "▁opportun": 3720,
      "▁took": 3721,
      "▁عل": 3722,
      "json": 3723,
      "▁parent": 3724,
      "▁Dis": 3725,
      "▁);": 3726,
      "▁walk": 3727,
      "plit": 3728,
      "▁...": 3729,
      "▁blue": 3730,
      "▁changes": 3731,
      "▁plant": 3732,
      "▁card": 3733,
      "inary": 3734,
      "▁easy": 3735,
      "▁performance": 3736,
      "▁///": 3737,
      "▁source": 3738,
      "▁application": 3739,
      "aves": 3740,
      "ires": 3741,
      "▁added": 3742,
      "UN": 3743,
      "num": 3744,
      "otal": 3745,
      "▁half": 3746,
      "ered": 3747,
      "dom": 3748,
      "roups": 3749,
      "oph": 3750,
      "uj": 3751,
      "▁q": 3752,
      "▁graph": 3753,
      "ias": 3754,
      "▁terms": 3755,
      "▁natural": 3756,
      "istance": 3757,
      "ще": 3758,
      "▁pattern": 3759,
      "▁вы": 3760,
      "▁surface": 3761,
      "config": 3762,
      "▁By": 3763,
      "▁Go": 3764,
      "tes": 3765,
      "भी": 3766,
      "IV": 3767,
      "▁sun": 3768,
      "OL": 3769,
      "append": 3770,
      "No": 3771,
      "▁deal": 3772,
      "▁York": 3773,
      "▁arm": 3774,
      "lin": 3775,
      "aced": 3776,
      "ги": 3777,
      "Pr": 3778,
      "zen": 3779,
      "্প": 3780,
      "েশ": 3781,
      "▁didn": 3782,
      "▁util": 3783,
      "▁quant": 3784,
      "▁ever": 3785,
      "▁teach": 3786,
      "ها": 3787,
      "▁building": 3788,
      "▁pie": 3789,
      "▁Not": 3790,
      "रे": 3791,
      "▁Let": 3792,
      "▁मै": 3793,
      "▁months": 3794,
      "▁mach": 3795,
      "};": 3796,
      "▁systems": 3797,
      "▁fall": 3798,
      "ko": 3799,
      "(),": 3800,
      "ging": 3801,
      "िव": 3802,
      "▁God": 3803,
      "▁कार": 3804,
      "[]": 3805,
      "ese": 3806,
      "}-": 3807,
      "ाल": 3808,
      "▁ach": 3809,
      "There": 3810,
      "ledge": 3811,
      "▁из": 3812,
      "▁साथ": 3813,
      "ala": 3814,
      "▁separ": 3815,
      "▁ens": 3816,
      "ши": 3817,
      "▁zu": 3818,
      "▁yet": 3819,
      "▁गया": 3820,
      "▁express": 3821,
      "▁title": 3822,
      "▁quick": 3823,
      "lim": 3824,
      "▁weight": 3825,
      "▁green": 3826,
      "▁Dep": 3827,
      "ework": 3828,
      "eters": 3829,
      "ски": 3830,
      "▁shows": 3831,
      ".;": 3832,
      "posed": 3833,
      "At": 3834,
      "▁options": 3835,
      "ained": 3836,
      "ாக": 3837,
      "▁pict": 3838,
      "▁blo": 3839,
      "pm": 3840,
      "times": 3841,
      "pan": 3842,
      "down": 3843,
      "ners": 3844,
      "Inter": 3845,
      "fully": 3846,
      "▁provided": 3847,
      "uit": 3848,
      "trans": 3849,
      "льно": 3850,
      "stract": 3851,
      "ns": 3852,
      "▁role": 3853,
      "formation": 3854,
      "▁я": 3855,
      "▁protect": 3856,
      "ின்": 3857,
      "▁Val": 3858,
      "inner": 3859,
      "ক্ষ": 3860,
      "▁length": 3861,
      "iet": 3862,
      "▁wood": 3863,
      "db": 3864,
      "жи": 3865,
      "▁ground": 3866,
      "▁normal": 3867,
      "▁financ": 3868,
      "▁tax": 3869,
      "ঙ্": 3870,
      "images": 3871,
      "▁hor": 3872,
      "center": 3873,
      "▁cells": 3874,
      "▁woman": 3875,
      "▁সে": 3876,
      "▁growth": 3877,
      "ных": 3878,
      "▁Europe": 3879,
      "स्त": 3880,
      "ellow": 3881,
      "▁dam": 3882,
      "Group": 3883,
      "▁và": 3884,
      "▁hours": 3885,
      "wa": 3886,
      "ية": 3887,
      "maz": 3888,
      "sequ": 3889,
      "▁answer": 3890,
      "rawing": 3891,
      "▁live": 3892,
      "bsite": 3893,
      "▁according": 3894,
      "Act": 3895,
      "bit": 3896,
      "ima": 3897,
      "Int": 3898,
      "्स": 3899,
      "Sc": 3900,
      "▁Dec": 3901,
      "▁گ": 3902,
      "^{-": 3903,
      "▁structure": 3904,
      "▁board": 3905,
      "info": 3906,
      "nes": 3907,
      "+\\": 3908,
      "▁difficult": 3909,
      "How": 3910,
      "▁age": 3911,
      "Be": 3912,
      "сть": 3913,
      "▁cannot": 3914,
      "▁android": 3915,
      "ti": 3916,
      "include": 3917,
      "▁খ": 3918,
      "▁Aut": 3919,
      "▁ho": 3920,
      "▁->": 3921,
      "▁cy": 3922,
      "▁कु": 3923,
      "itional": 3924,
      "▁story": 3925,
      "▁alg": 3926,
      "▁search": 3927,
      "ivo": 3928,
      "verse": 3929,
      "▁mis": 3930,
      "▁started": 3931,
      "Request": 3932,
      "▁те": 3933,
      "▁রা": 3934,
      "itting": 3935,
      "ന്ന": 3936,
      "ക്ക": 3937,
      "▁output": 3938,
      "▁went": 3939,
      "mary": 3940,
      "rug": 3941,
      "▁introdu": 3942,
      "▁||": 3943,
      "▁cook": 3944,
      "ario": 3945,
      "▁Pre": 3946,
      "point": 3947,
      "enu": 3948,
      "Out": 3949,
      "▁তা": 3950,
      "mm": 3951,
      "▁comes": 3952,
      "▁girl": 3953,
      "зи": 3954,
      "content": 3955,
      "▁industry": 3956,
      "▁config": 3957,
      "▁engine": 3958,
      "\"),": 3959,
      "▁intern": 3960,
      "ilon": 3961,
      "▁six": 3962,
      "orage": 3963,
      "▁ма": 3964,
      "▁isol": 3965,
      "▁recomm": 3966,
      "▁loss": 3967,
      "▁har": 3968,
      "▁autom": 3969,
      "code": 3970,
      "са": 3971,
      "▁double": 3972,
      "cast": 3973,
      "Set": 3974,
      "/*": 3975,
      "ben": 3976,
      "▁particip": 3977,
      "▁getting": 3978,
      "▁bal": 3979,
      "▁clean": 3980,
      "igation": 3981,
      "ту": 3982,
      "hel": 3983,
      "Des": 3984,
      "udio": 3985,
      "rie": 3986,
      "ற்": 3987,
      "▁center": 3988,
      "って": 3989,
      "▁ré": 3990,
      "top": 3991,
      "ारा": 3992,
      "acc": 3993,
      "atory": 3994,
      "▁coll": 3995,
      "▁complex": 3996,
      "▁management": 3997,
      "▁foot": 3998,
      "ening": 3999,
      "page": 4000,
      "\"><": 4001,
      "current": 4002,
      "uments": 4003,
      "anguage": 4004,
      "plate": 4005,
      "▁improve": 4006,
      "▁prop": 4007,
      "elle": 4008,
      "▁media": 4009,
      "ör": 4010,
      "▁perfect": 4011,
      "IP": 4012,
      "curity": 4013,
      "urg": 4014,
      "▁М": 4015,
      "▁लोग": 4016,
      "just": 4017,
      "▁applic": 4018,
      "rial": 4019,
      "}(\\": 4020,
      "▁உ": 4021,
      "▁temperature": 4022,
      "ере": 4023,
      "▁share": 4024,
      "▁National": 4025,
      "ড়": 4026,
      "ened": 4027,
      "▁Ser": 4028,
      "▁refer": 4029,
      "▁taking": 4030,
      "rav": 4031,
      "▁có": 4032,
      "SS": 4033,
      "jpg": 4034,
      "▁frequ": 4035,
      "Ad": 4036,
      "iti": 4037,
      "▁doesn": 4038,
      "▁ה": 4039,
      "▁Part": 4040,
      "see": 4041,
      "する": 4042,
      "group": 4043,
      "▁etc": 4044,
      "▁dim": 4045,
      "▁chall": 4046,
      "▁exec": 4047,
      "ategory": 4048,
      "ining": 4049,
      "ου": 4050,
      "ounc": 4051,
      "ication": 4052,
      "▁Mod": 4053,
      "▁court": 4054,
      "▁देख": 4055,
      "atal": 4056,
      "UL": 4057,
      "▁sch": 4058,
      "▁enjoy": 4059,
      "with": 4060,
      "мен": 4061,
      "ন্ত": 4062,
      "rightarrow": 4063,
      "▁java": 4064,
      "▁features": 4065,
      "itten": 4066,
      "▁ان": 4067,
      "▁initial": 4068,
      "्री": 4069,
      "DE": 4070,
      "▁cross": 4071,
      "না": 4072,
      "ags": 4073,
      "ود": 4074,
      "▁Em": 4075,
      "eq": 4076,
      "▁standard": 4077,
      "▁problems": 4078,
      "elling": 4079,
      "HT": 4080,
      "▁তার": 4081,
      "▁ফ": 4082,
      "▁history": 4083,
      "\\\\": 4084,
      "▁City": 4085,
      "▁bed": 4086,
      "▁track": 4087,
      "Of": 4088,
      "isf": 4089,
      "দ্": 4090,
      "▁در": 4091,
      "Config": 4092,
      "▁Af": 4093,
      "unc": 4094,
      "ply": 4095,
      "दा": 4096,
      "▁А": 4097,
      "Service": 4098,
      "oke": 4099,
      "▁impact": 4100,
      "argin": 4101,
      "▁continue": 4102,
      "▁film": 4103,
      "ements": 4104,
      "▁princ": 4105,
      "▁areas": 4106,
      "ydro": 4107,
      "▁web": 4108,
      "▁World": 4109,
      "PE": 4110,
      "idge": 4111,
      "▁squ": 4112,
      "▁measure": 4113,
      "find": 4114,
      "▁lat": 4115,
      "Result": 4116,
      "void": 4117,
      "▁pati": 4118,
      "[\"": 4119,
      "▁ut": 4120,
      "▁}^{": 4121,
      "▁training": 4122,
      "ucle": 4123,
      "rip": 4124,
      "annel": 4125,
      "▁continu": 4126,
      "▁necessary": 4127,
      "▁region": 4128,
      "hing": 4129,
      "aged": 4130,
      "leq": 4131,
      "operator": 4132,
      "▁complete": 4133,
      "▁más": 4134,
      "▁nature": 4135,
      "▁उस": 4136,
      "▁questions": 4137,
      "ufact": 4138,
      "cel": 4139,
      "▁Add": 4140,
      "▁),": 4141,
      "bon": 4142,
      "iting": 4143,
      "▁implement": 4144,
      "nav": 4145,
      "▁works": 4146,
      "ты": 4147,
      "▁beautiful": 4148,
      "oved": 4149,
      "▁Rep": 4150,
      "igen": 4151,
      "▁Comp": 4152,
      "Log": 4153,
      "▁entre": 4154,
      "▁player": 4155,
      "▁।": 4156,
      "▁()": 4157,
      "aging": 4158,
      "▁grand": 4159,
      "Array": 4160,
      "........": 4161,
      "▁میں": 4162,
      "Page": 4163,
      "▁dos": 4164,
      "یک": 4165,
      "asi": 4166,
      "Controller": 4167,
      "▁third": 4168,
      "IST": 4169,
      "osition": 4170,
      "▁words": 4171,
      "cdot": 4172,
      "▁told": 4173,
      "ற்ற": 4174,
      "uest": 4175,
      "vi": 4176,
      "change": 4177,
      "▁да": 4178,
      "▁Jan": 4179,
      "▁almost": 4180,
      "▁technology": 4181,
      "odes": 4182,
      "▁что": 4183,
      "▁States": 4184,
      "▁global": 4185,
      "▁issue": 4186,
      "▁map": 4187,
      "▁item": 4188,
      "lector": 4189,
      "ynam": 4190,
      "▁relationship": 4191,
      "agn": 4192,
      "में": 4193,
      "▁condition": 4194,
      "ramework": 4195,
      "▁stay": 4196,
      "ouch": 4197,
      "▁dise": 4198,
      "New": 4199,
      "UM": 4200,
      "शन": 4201,
      "Loc": 4202,
      "▁correspon": 4203,
      "▁pressure": 4204,
      "ные": 4205,
      "OM": 4206,
      "टी": 4207,
      "▁affect": 4208,
      "▁task": 4209,
      "▁After": 4210,
      "xim": 4211,
      "exp": 4212,
      "obile": 4213,
      "▁이": 4214,
      "▁Trans": 4215,
      "▁DE": 4216,
      "▁matter": 4217,
      "partial": 4218,
      "▁ऑ": 4219,
      "▁cred": 4220,
      "ky": 4221,
      "Def": 4222,
      "gamma": 4223,
      "▁Now": 4224,
      "Sp": 4225,
      "▁rad": 4226,
      "▁ep": 4227,
      "xy": 4228,
      "▁opp": 4229,
      "▁compan": 4230,
      "ông": 4231,
      "лю": 4232,
      "oldsymbol": 4233,
      "▁अन": 4234,
      "boldsymbol": 4235,
      "কার": 4236,
      "▁od": 4237,
      "▁auf": 4238,
      "▁imm": 4239,
      "hand": 4240,
      "▁match": 4241,
      "▁accept": 4242,
      "ret": 4243,
      "▁Bar": 4244,
      "ारे": 4245,
      "▁کر": 4246,
      "▁held": 4247,
      "\").": 4248,
      "▁speed": 4249,
      "bed": 4250,
      "▁entire": 4251,
      "▁music": 4252,
      "▁host": 4253,
      "ี่": 4254,
      "Fr": 4255,
      "check": 4256,
      "▁South": 4257,
      "▁contract": 4258,
      "itte": 4259,
      "▁sort": 4260,
      "ached": 4261,
      "▁Н": 4262,
      "ride": 4263,
      "▁/**": 4264,
      "aving": 4265,
      "izing": 4266,
      "ona": 4267,
      "itter": 4268,
      "▁treatment": 4269,
      "mission": 4270,
      "lying": 4271,
      "reen": 4272,
      "▁Fl": 4273,
      "ilde": 4274,
      "▁expected": 4275,
      "▁ol": 4276,
      "▁anim": 4277,
      "cial": 4278,
      "ao": 4279,
      "▁sou": 4280,
      "zi": 4281,
      "ador": 4282,
      "tre": 4283,
      "▁road": 4284,
      "▁especially": 4285,
      "कि": 4286,
      "▁bad": 4287,
      "zer": 4288,
      "ிற": 4289,
      "rows": 4290,
      "▁Will": 4291,
      "Component": 4292,
      "uh": 4293,
      "át": 4294,
      "ér": 4295,
      "▁Pres": 4296,
      "▁grad": 4297,
      "▁Then": 4298,
      "▁ball": 4299,
      "▁Gener": 4300,
      "▁travel": 4301,
      "▁এই": 4302,
      "▁regard": 4303,
      "▁fire": 4304,
      "▁miss": 4305,
      "▁pen": 4306,
      "▁ค": 4307,
      "▁Count": 4308,
      "▁button": 4309,
      "▁minutes": 4310,
      "டு": 4311,
      "kn": 4312,
      "▁approach": 4313,
      "▁gas": 4314,
      "oj": 4315,
      "anch": 4316,
      "▁idea": 4317,
      "вы": 4318,
      "▁rather": 4319,
      "▁profess": 4320,
      "▁column": 4321,
      "▁screen": 4322,
      "▁via": 4323,
      "So": 4324,
      "▁Mon": 4325,
      "▁everything": 4326,
      "ello": 4327,
      "lege": 4328,
      "!!": 4329,
      "Over": 4330,
      "▁pain": 4331,
      "nov": 4332,
      "▁Int": 4333,
      "▁ya": 4334,
      "Class": 4335,
      "iy": 4336,
      "\",\"": 4337,
      "▁correct": 4338,
      "True": 4339,
      "OC": 4340,
      "▁valid": 4341,
      "▁issues": 4342,
      "▁sin": 4343,
      "пи": 4344,
      "▁sym": 4345,
      "▁quite": 4346,
      "ক্ত": 4347,
      "Not": 4348,
      "▁пре": 4349,
      "Layout": 4350,
      "▁pick": 4351,
      "▁ध": 4352,
      "▁qual": 4353,
      "▁needed": 4354,
      "▁death": 4355,
      "را": 4356,
      "anced": 4357,
      "▁jour": 4358,
      "▁Um": 4359,
      "▁unit": 4360,
      "▁List": 4361,
      "endo": 4362,
      "ector": 4363,
      "▁NULL": 4364,
      "बर": 4365,
      "osph": 4366,
      "▁purch": 4367,
      "model": 4368,
      "▁nom": 4369,
      "▁og": 4370,
      "▁पू": 4371,
      "▁Aust": 4372,
      "pass": 4373,
      "▁member": 4374,
      "message": 4375,
      "ATION": 4376,
      "Count": 4377,
      "selves": 4378,
      "▁tu": 4379,
      "ні": 4380,
      "▁star": 4381,
      "ées": 4382,
      "NA": 4383,
      "▁jud": 4384,
      "▁ax": 4385,
      "▁പ": 4386,
      "▁feed": 4387,
      "ায়": 4388,
      "▁friend": 4389,
      "msub": 4390,
      "തി": 4391,
      "▁Ob": 4392,
      "inst": 4393,
      "Field": 4394,
      "ola": 4395,
      "Action": 4396,
      "▁mas": 4397,
      "▁average": 4398,
      "▁patients": 4399,
      "▁cause": 4400,
      "िर": 4401,
      "▁groups": 4402,
      "▁context": 4403,
      "mes": 4404,
      "▁mal": 4405,
      "version": 4406,
      "uses": 4407,
      "▁office": 4408,
      "arth": 4409,
      "ensive": 4410,
      "▁sett": 4411,
      "het": 4412,
      "▁↑": 4413,
      "▁positive": 4414,
      "zo": 4415,
      "▁sec": 4416,
      "▁agre": 4417,
      "ного": 4418,
      "++)": 4419,
      "When": 4420,
      "▁उन": 4421,
      "▁]": 4422,
      "pa": 4423,
      "mt": 4424,
      "cos": 4425,
      "▁Mc": 4426,
      "osed": 4427,
      "RA": 4428,
      "▁photo": 4429,
      "▁client": 4430,
      "bor": 4431,
      "Ste": 4432,
      "sigma": 4433,
      "зо": 4434,
      "▁deb": 4435,
      "ige": 4436,
      "یا": 4437,
      "operatorname": 4438,
      "▁ST": 4439,
      "ियों": 4440,
      "ный": 4441,
      "жа": 4442,
      "yes": 4443,
      "apan": 4444,
      "omega": 4445,
      "▁oil": 4446,
      "rho": 4447,
      "▁forward": 4448,
      "ById": 4449,
      "ной": 4450,
      "aya": 4451,
      "Number": 4452,
      "▁exact": 4453,
      "else": 4454,
      "▁THE": 4455,
      "▁website": 4456,
      "▁се": 4457,
      "▁types": 4458,
      "▁saf": 4459,
      "▁ప": 4460,
      "▁received": 4461,
      "▁este": 4462,
      "▁lines": 4463,
      "▁created": 4464,
      "ika": 4465,
      "▁alt": 4466,
      "▁park": 4467,
      "ண்ட": 4468,
      "▁tour": 4469,
      "▁bound": 4470,
      "▁Inter": 4471,
      "▁Pe": 4472,
      "ibrary": 4473,
      "▁src": 4474,
      "▁hon": 4475,
      "▁install": 4476,
      "vol": 4477,
      "▁è": 4478,
      "்ச": 4479,
      "%%": 4480,
      "▁extra": 4481,
      "ych": 4482,
      "▁seem": 4483,
      "াদ": 4484,
      "option": 4485,
      "reate": 4486,
      "▁prior": 4487,
      "▁ল": 4488,
      "acity": 4489,
      "II": 4490,
      "▁wait": 4491,
      "▁Acc": 4492,
      "▁pet": 4493,
      "leep": 4494,
      "ని": 4495,
      "ेट": 4496,
      "css": 4497,
      "जी": 4498,
      "ris": 4499,
      "▁bill": 4500,
      "ढ़": 4501,
      "PS": 4502,
      "run": 4503,
      "▁Sm": 4504,
      "भा": 4505,
      "rest": 4506,
      "Map": 4507,
      "▁Sim": 4508,
      "ady": 4509,
      "▁li": 4510,
      "▁mechan": 4511,
      "▁constant": 4512,
      "click": 4513,
      "▁effort": 4514,
      "theta": 4515,
      "▁probably": 4516,
      "ordin": 4517,
      "▁effects": 4518,
      "▁satisf": 4519,
      "ete": 4520,
      "System": 4521,
      "▁mais": 4522,
      "php": 4523,
      "▁Pa": 4524,
      "मी": 4525,
      "▁watch": 4526,
      "▁nam": 4527,
      "ंत": 4528,
      "▁contr": 4529,
      "false": 4530,
      "ிக": 4531,
      "▁modern": 4532,
      "▁except": 4533,
      "▁Mark": 4534,
      "▁levels": 4535,
      "iday": 4536,
      "▁decl": 4537,
      "thon": 4538,
      "Line": 4539,
      "ria": 4540,
      "Su": 4541,
      "▁considered": 4542,
      "▁क्": 4543,
      "▁छ": 4544,
      "mar": 4545,
      "ाय": 4546,
      "▁likely": 4547,
      "ès": 4548,
      "▁af": 4549,
      "istry": 4550,
      "▁consist": 4551,
      "്‍": 4552,
      "▁email": 4553,
      "car": 4554,
      "aker": 4555,
      "▁Park": 4556,
      "agram": 4557,
      "▁:=": 4558,
      "▁national": 4559,
      "▁https": 4560,
      "▁concern": 4561,
      "icles": 4562,
      "▁location": 4563,
      "▁де": 4564,
      "md": 4565,
      "oon": 4566,
      ")}": 4567,
      "▁Log": 4568,
      "म्": 4569,
      "ients": 4570,
      "iques": 4571,
      "▁fre": 4572,
      "But": 4573,
      "▁radi": 4574,
      "▁бо": 4575,
      "▁limit": 4576,
      "อง": 4577,
      "▁ago": 4578,
      "contain": 4579,
      "ère": 4580,
      "ku": 4581,
      "ming": 4582,
      "▁occur": 4583,
      "▁О": 4584,
      "▁Art": 4585,
      "ras": 4586,
      "▁sy": 4587,
      "▁activity": 4588,
      "atur": 4589,
      "ర్": 4590,
      "▁für": 4591,
      "▁fast": 4592,
      "ospital": 4593,
      "idget": 4594,
      "▁remain": 4595,
      "▁related": 4596,
      "▁obtained": 4597,
      "▁party": 4598,
      "artment": 4599,
      "▁===": 4600,
      "anning": 4601,
      "Is": 4602,
      "height": 4603,
      "▁pi": 4604,
      ")$.": 4605,
      "output": 4606,
      "lied": 4607,
      "▁Ver": 4608,
      "▁π": 4609,
      "▁update": 4610,
      "inn": 4611,
      "াজ": 4612,
      "▁assert": 4613,
      "▁hope": 4614,
      "▁methods": 4615,
      "▁ing": 4616,
      "▁arr": 4617,
      "ociety": 4618,
      "Ab": 4619,
      "મા": 4620,
      "▁accom": 4621,
      "▁compl": 4622,
      "ीड": 4623,
      "$-": 4624,
      "▁prec": 4625,
      "▁रहे": 4626,
      "ensity": 4627,
      "▁couple": 4628,
      "println": 4629,
      "eff": 4630,
      "▁ક": 4631,
      "▁Б": 4632,
      "िंग": 4633,
      "ela": 4634,
      "▁अपने": 4635,
      "actions": 4636,
      "itude": 4637,
      "▁experi": 4638,
      "▁आज": 4639,
      "ेल": 4640,
      "▁spect": 4641,
      "िला": 4642,
      "▁More": 4643,
      "ees": 4644,
      "▁vot": 4645,
      "▁believe": 4646,
      "aligned": 4647,
      "▁tim": 4648,
      "▁Sw": 4649,
      "airs": 4650,
      "ira": 4651,
      "▁risk": 4652,
      "▁equip": 4653,
      "▁knowledge": 4654,
      "▁Aug": 4655,
      "่า": 4656,
      "▁attack": 4657,
      "▁anything": 4658,
      "▁sequ": 4659,
      "CE": 4660,
      "Input": 4661,
      "adding": 4662,
      "From": 4663,
      "▁favor": 4664,
      "▁cry": 4665,
      "encia": 4666,
      "▁arch": 4667,
      "▁news": 4668,
      "নি": 4669,
      "ிர": 4670,
      "sm": 4671,
      "▁Cour": 4672,
      "▁India": 4673,
      "Up": 4674,
      "Ed": 4675,
      "▁article": 4676,
      "▁everyone": 4677,
      "▁са": 4678,
      "▁Russ": 4679,
      "▁cand": 4680,
      "▁models": 4681,
      "▁catch": 4682,
      "▁ви": 4683,
      "▁mes": 4684,
      "cor": 4685,
      "ем": 4686,
      "▁influ": 4687,
      "▁parts": 4688,
      "ঙ্গ": 4689,
      "▁friends": 4690,
      "▁fit": 4691,
      "▁با": 4692,
      "iction": 4693,
      "▁uma": 4694,
      "▁North": 4695,
      "▁अध": 4696,
      "ما": 4697,
      "▁staff": 4698,
      "▁companies": 4699,
      "▁Д": 4700,
      "ীর": 4701,
      "▁concent": 4702,
      "ছেন": 4703,
      "щи": 4704,
      "ocket": 4705,
      "sec": 4706,
      "েকে": 4707,
      "UE": 4708,
      "▁unique": 4709,
      "▁running": 4710,
      "cover": 4711,
      "▁وال": 4712,
      "});": 4713,
      "▁conduct": 4714,
      "▁AND": 4715,
      "▁takes": 4716,
      "وا": 4717,
      "▁illustration": 4718,
      "▁micro": 4719,
      "rate": 4720,
      "▁stop": 4721,
      "Delta": 4722,
      "alam": 4723,
      "Ent": 4724,
      "iva": 4725,
      "▁recogn": 4726,
      "টা": 4727,
      "▁provides": 4728,
      "وں": 4729,
      "valid": 4730,
      "▁})": 4731,
      "চ্": 4732,
      "▁asked": 4733,
      "్ర": 4734,
      "▁learning": 4735,
      "Listener": 4736,
      "িয়ে": 4737,
      "▁wel": 4738,
      "▁सब": 4739,
      "Node": 4740,
      "▁ü": 4741,
      "▁vous": 4742,
      "▁mil": 4743,
      "▁device": 4744,
      "▁equal": 4745,
      "attle": 4746,
      "ून": 4747,
      "pril": 4748,
      "▁events": 4749,
      "▁आपको": 4750,
      "anger": 4751,
      "▁ہے": 4752,
      "▁الل": 4753,
      "My": 4754,
      "oe": 4755,
      "▁ful": 4756,
      "▁manufact": 4757,
      "▁lib": 4758,
      "пе": 4759,
      "../": 4760,
      "acing": 4761,
      "▁store": 4762,
      "kay": 4763,
      "request": 4764,
      "ری": 4765,
      "▁Gover": 4766,
      "▁additional": 4767,
      "ipal": 4768,
      "▁RE": 4769,
      "▁सु": 4770,
      "▁window": 4771,
      "▁ord": 4772,
      "▁predict": 4773,
      "▁পার": 4774,
      "mente": 4775,
      "cing": 4776,
      "িনি": 4777,
      "▁<-": 4778,
      "tty": 4779,
      "abase": 4780,
      "▁usually": 4781,
      "▁outside": 4782,
      "aily": 4783,
      "sqrt": 4784,
      "▁reported": 4785,
      "▁Cons": 4786,
      ")-": 4787,
      "ependent": 4788,
      "▁бы": 4789,
      "▁hol": 4790,
      "าร": 4791,
      "delta": 4792,
      "är": 4793,
      "vas": 4794,
      "Content": 4795,
      "▁lab": 4796,
      "বি": 4797,
      "▁het": 4798,
      "▁dog": 4799,
      "▁это": 4800,
      "▁sn": 4801,
      "iger": 4802,
      "▁recent": 4803,
      "न्ह": 4804,
      "प्": 4805,
      "▁blood": 4806,
      "▁becom": 4807,
      "▁countries": 4808,
      "Code": 4809,
      "▁ക": 4810,
      "▁Ac": 4811,
      "########": 4812,
      "▁isolated": 4813,
      "sets": 4814,
      "FA": 4815,
      "}}\\": 4816,
      "hline": 4817,
      "status": 4818,
      "▁High": 4819,
      "▁elements": 4820,
      "ights": 4821,
      "▁icon": 4822,
      "tab": 4823,
      "▁σ": 4824,
      "▁await": 4825,
      "ponse": 4826,
      "▁اس": 4827,
      "▁ja": 4828,
      "▁。": 4829,
      "Dis": 4830,
      "▁een": 4831,
      "്ട": 4832,
      "').": 4833,
      "sa": 4834,
      "▁behav": 4835,
      "agement": 4836,
      "avy": 4837,
      "▁น": 4838,
      "▁কো": 4839,
      "▁Т": 4840,
      "▁regular": 4841,
      "omb": 4842,
      "वि": 4843,
      "▁West": 4844,
      "▁click": 4845,
      "▁ple": 4846,
      "ead": 4847,
      "ista": 4848,
      "RAM": 4849,
      "▁itself": 4850,
      "▁κ": 4851,
      "▁items": 4852,
      "atives": 4853,
      "▁для": 4854,
      "▁Red": 4855,
      "▁bank": 4856,
      "▁pal": 4857,
      "ств": 4858,
      "▁Phys": 4859,
      "▁fem": 4860,
      "▁ways": 4861,
      ".-": 4862,
      "ियो": 4863,
      "▁select": 4864,
      "▁copy": 4865,
      "▁prep": 4866,
      "▁financial": 4867,
      "MA": 4868,
      "▁increased": 4869,
      "SR": 4870,
      "க்கு": 4871,
      "दी": 4872,
      "char": 4873,
      "next": 4874,
      "▁trying": 4875,
      "▁images": 4876,
      "fty": 4877,
      "गी": 4878,
      "▁eval": 4879,
      "يه": 4880,
      "can": 4881,
      "▁living": 4882,
      "▁maintain": 4883,
      "istics": 4884,
      "PO": 4885,
      "▁round": 4886,
      "▁mount": 4887,
      "▁inside": 4888,
      "▁details": 4889,
      "▁longer": 4890,
      "▁coming": 4891,
      "▁Est": 4892,
      "▁decision": 4893,
      "ega": 4894,
      "enced": 4895,
      "▁glass": 4896,
      "ternal": 4897,
      "▁ط": 4898,
      "▁Rec": 4899,
      "ും": 4900,
      "▁equation": 4901,
      "▁avec": 4902,
      "▁write": 4903,
      "▁तक": 4904,
      "▁Oct": 4905,
      "One": 4906,
      "build": 4907,
      "▁но": 4908,
      "train": 4909,
      "uer": 4910,
      "▁depend": 4911,
      "▁force": 4912,
      "▁popular": 4913,
      "▁evidence": 4914,
      "ют": 4915,
      "▁hands": 4916,
      "._": 4917,
      "▁band": 4918,
      "show": 4919,
      "▁acid": 4920,
      "▁transfer": 4921,
      "▁nos": 4922,
      "▁His": 4923,
      "▁•": 4924,
      "case": 4925,
      "▁feature": 4926,
      "ATE": 4927,
      "▁mention": 4928,
      "▁ps": 4929,
      "▁School": 4930,
      "▁ме": 4931,
      "▁repl": 4932,
      "oms": 4933,
      "▁From": 4934,
      "▁fra": 4935,
      "cha": 4936,
      "▁former": 4937,
      "ير": 4938,
      "ifier": 4939,
      "▁random": 4940,
      "▁の": 4941,
      "ponents": 4942,
      "▁Some": 4943,
      "orem": 4944,
      "▁numbers": 4945,
      "▁सि": 4946,
      "▁бу": 4947,
      "▁বল": 4948,
      "▁soon": 4949,
      "emy": 4950,
      "vey": 4951,
      "▁administ": 4952,
      "це": 4953,
      "▁difference": 4954,
      "▁[]:": 4955,
      "ับ": 4956,
      "▁policy": 4957,
      "▁ста": 4958,
      "▁transform": 4959,
      "ederal": 4960,
      "Manager": 4961,
      "▁ni": 4962,
      "हां": 4963,
      "▁α": 4964,
      "alle": 4965,
      "rim": 4966,
      "La": 4967,
      "Model": 4968,
      "▁Har": 4969,
      "▁described": 4970,
      "display": 4971,
      "▁games": 4972,
      "sim": 4973,
      "Hand": 4974,
      "▁viol": 4975,
      "El": 4976,
      "▁behind": 4977,
      "▁बाद": 4978,
      "uary": 4979,
      "ள்ள": 4980,
      "▁status": 4981,
      "▁Р": 4982,
      "mical": 4983,
      "unk": 4984,
      "▁करें": 4985,
      "uge": 4986,
      "▁Get": 4987,
      "▁draw": 4988,
      "TH": 4989,
      "▁Stud": 4990,
      "▁command": 4991,
      "িতে": 4992,
      "▁education": 4993,
      "ares": 4994,
      "gi": 4995,
      "▁dark": 4996,
      "lebr": 4997,
      "kl": 4998,
      "▁http": 4999,
      "player": 5000,
      "▁prevent": 5001,
      "ủa": 5002,
      "▁veh": 5003,
      "▁saw": 5004,
      "ர்க": 5005,
      "older": 5006,
      "▁раз": 5007,
      "oo": 5008,
      "ité": 5009,
      "Table": 5010,
      "\\|": 5011,
      "▁included": 5012,
      "▁stress": 5013,
      "perty": 5014,
      "Bar": 5015,
      "▁ধ": 5016,
      "▁nothing": 5017,
      "agon": 5018,
      "ில": 5019,
      "fficient": 5020,
      "▁gives": 5021,
      "▁states": 5022,
      "▁પ": 5023,
      "Reg": 5024,
      "gu": 5025,
      "▁someone": 5026,
      "anti": 5027,
      "▁tree": 5028,
      "った": 5029,
      "▁nil": 5030,
      "▁streng": 5031,
      "tau": 5032,
      "ental": 5033,
      "active": 5034,
      "di": 5035,
      "▁सी": 5036,
      "ार्": 5037,
      "usion": 5038,
      "▁send": 5039,
      "ondon": 5040,
      "vest": 5041,
      "▁của": 5042,
      "”.": 5043,
      "Math": 5044,
      "্ম": 5045,
      "▁nov": 5046,
      "Point": 5047,
      "▁wanted": 5048,
      "rid": 5049,
      "న్": 5050,
      "▁Sci": 5051,
      "▁security": 5052,
      "rat": 5053,
      "▁San": 5054,
      "rak": 5055,
      "▁demand": 5056,
      "▁sound": 5057,
      "▁platform": 5058,
      "wise": 5059,
      "▁जी": 5060,
      "▁Us": 5061,
      "▁__": 5062,
      "गर": 5063,
      "▁sen": 5064,
      "▁multiple": 5065,
      "ethyl": 5066,
      "png": 5067,
      "हु": 5068,
      "ql": 5069,
      "itable": 5070,
      "▁wer": 5071,
      "▁seems": 5072,
      "▁\\%": 5073,
      "▁multi": 5074,
      "▁থেকে": 5075,
      "▁proced": 5076,
      "から": 5077,
      "ittee": 5078,
      "▁Afric": 5079,
      "▁estim": 5080,
      "arter": 5081,
      "▁properties": 5082,
      "▁dro": 5083,
      "▁Germ": 5084,
      "▁activities": 5085,
      "▁option": 5086,
      "infty": 5087,
      "block": 5088,
      "▁users": 5089,
      "ague": 5090,
      "▁please": 5091,
      "▁appe": 5092,
      "Info": 5093,
      "CL": 5094,
      "一个": 5095,
      "Sub": 5096,
      "▁};": 5097,
      "dir": 5098,
      "dev": 5099,
      "ाह": 5100,
      "flow": 5101,
      "adas": 5102,
      "▁customers": 5103,
      "▁charg": 5104,
      "ropri": 5105,
      "event": 5106,
      "Ser": 5107,
      "িস": 5108,
      "ря": 5109,
      "▁Sept": 5110,
      "▁slow": 5111,
      "ön": 5112,
      "▁sense": 5113,
      "▁ஆ": 5114,
      "▁(!": 5115,
      "ான": 5116,
      "▁student": 5117,
      "▁depart": 5118,
      "xi": 5119,
      "বার": 5120,
      "▁fail": 5121,
      "▁gold": 5122,
      "▁स्ट": 5123,
      "Message": 5124,
      "▁official": 5125,
      "য়ে": 5126,
      "table": 5127,
      "pty": 5128,
      "Label": 5129,
      "OW": 5130,
      "▁Er": 5131,
      "▁includes": 5132,
      "emic": 5133,
      "वर": 5134,
      "itation": 5135,
      "engan": 5136,
      "▁Our": 5137,
      "▁flex": 5138,
      "▁solid": 5139,
      "based": 5140,
      "Per": 5141,
      "▁June": 5142,
      "▁associated": 5143,
      "Control": 5144,
      "▁fig": 5145,
      "▁Dav": 5146,
      "Click": 5147,
      "▁town": 5148,
      "▁distance": 5149,
      "▁basis": 5150,
      "▁functions": 5151,
      "inding": 5152,
      "MP": 5153,
      "▁phone": 5154,
      "нов": 5155,
      "▁വ": 5156,
      "可以": 5157,
      "▁active": 5158,
      "ới": 5159,
      "oi": 5160,
      "▁decre": 5161,
      "দ্ধ": 5162,
      "band": 5163,
      "▁Ang": 5164,
      "▁Her": 5165,
      "web": 5166,
      "ography": 5167,
      "wood": 5168,
      "وم": 5169,
      "▁consum": 5170,
      "こと": 5171,
      "▁vel": 5172,
      "}_{\\": 5173,
      "▁inj": 5174,
      "ன்ற": 5175,
      "▁Pat": 5176,
      "▁digital": 5177,
      "▁ص": 5178,
      "aches": 5179,
      "▁Your": 5180,
      "▁simply": 5181,
      "▁క": 5182,
      "Trans": 5183,
      "ंट": 5184,
      "▁Don": 5185,
      "▁rat": 5186,
      "▁به": 5187,
      "cs": 5188,
      "Windows": 5189,
      "▁om": 5190,
      "Me": 5191,
      "▁language": 5192,
      "▁immedi": 5193,
      "▁computer": 5194,
      "ượ": 5195,
      "▁defin": 5196,
      "▁কি": 5197,
      "▁'./": 5198,
      "thern": 5199,
      "ोज": 5200,
      "encies": 5201,
      "पा": 5202,
      "▁transport": 5203,
      "mml": 5204,
      "▁instead": 5205,
      "iling": 5206,
      "▁bud": 5207,
      "▁১": 5208,
      "니다": 5209,
      "▁trust": 5210,
      "aries": 5211,
      "би": 5212,
      "▁**": 5213,
      "▁url": 5214,
      "then": 5215,
      "una": 5216,
      "ald": 5217,
      "▁ст": 5218,
      "tn": 5219,
      "রে": 5220,
      "▁defined": 5221,
      "▁cos": 5222,
      "▁राज": 5223,
      "▁sav": 5224,
      "▁effective": 5225,
      "▁late": 5226,
      "oring": 5227,
      "OP": 5228,
      "▁Inst": 5229,
      "iento": 5230,
      "▁Brit": 5231,
      "▁door": 5232,
      "▁therefore": 5233,
      "▁क्या": 5234,
      "isions": 5235,
      "reet": 5236,
      "}},": 5237,
      "▁follows": 5238,
      "Che": 5239,
      "▁\"\"\"": 5240,
      "ota": 5241,
      "▁اور": 5242,
      "▁সা": 5243,
      "▁NOT": 5244,
      "export": 5245,
      "▁IS": 5246,
      "▁मह": 5247,
      "eler": 5248,
      "▁collection": 5249,
      "▁essential": 5250,
      "▁international": 5251,
      "▁bul": 5252,
      "वी": 5253,
      "▁studies": 5254,
      "▁political": 5255,
      "bra": 5256,
      "amin": 5257,
      "akan": 5258,
      "ran": 5259,
      "స్": 5260,
      "▁March": 5261,
      "comp": 5262,
      "▁regul": 5263,
      "▁leave": 5264,
      "open": 5265,
      "▁np": 5266,
      "▁written": 5267,
      "▁deep": 5268,
      "}+\\": 5269,
      "TE": 5270,
      "rl": 5271,
      "▁aqu": 5272,
      "▁enter": 5273,
      "▁experiment": 5274,
      "phone": 5275,
      "द्": 5276,
      "jet": 5277,
      "▁prefer": 5278,
      "▁capital": 5279,
      "▁component": 5280,
      "▁direction": 5281,
      "like": 5282,
      "▁Ent": 5283,
      "▁built": 5284,
      "lib": 5285,
      "han": 5286,
      "isa": 5287,
      "omen": 5288,
      "▁War": 5289,
      "▁drug": 5290,
      "yles": 5291,
      "itory": 5292,
      "▁happy": 5293,
      "uid": 5294,
      "▁Inc": 5295,
      "▁distribution": 5296,
      "ford": 5297,
      "▁Ber": 5298,
      "IA": 5299,
      "▁rot": 5300,
      "▁mel": 5301,
      "ami": 5302,
      "▁వ": 5303,
      "▁className": 5304,
      "isation": 5305,
      "▁ز": 5306,
      "▁Ant": 5307,
      "wer": 5308,
      "▁ini": 5309,
      "rought": 5310,
      "▁sobre": 5311,
      "▁summer": 5312,
      "▁choice": 5313,
      "▁greater": 5314,
      "▁First": 5315,
      "aby": 5316,
      "holder": 5317,
      "mber": 5318,
      "क्ट": 5319,
      "augh": 5320,
      "▁Fig": 5321,
      "sin": 5322,
      "dat": 5323,
      "▁hair": 5324,
      "▁std": 5325,
      "ườ": 5326,
      "duc": 5327,
      "োগ": 5328,
      "Fig": 5329,
      "▁ensure": 5330,
      "unic": 5331,
      "ที่": 5332,
      "▁mut": 5333,
      "▁border": 5334,
      "node": 5335,
      "/>": 5336,
      "urt": 5337,
      "ds": 5338,
      "ình": 5339,
      "▁aud": 5340,
      "ধ্য": 5341,
      "▁assum": 5342,
      "umin": 5343,
      "Build": 5344,
      "▁instit": 5345,
      "▁label": 5346,
      "▁choose": 5347,
      "▁Port": 5348,
      "▁node": 5349,
      "▁Def": 5350,
      "▁histor": 5351,
      "MS": 5352,
      "bi": 5353,
      "▁mode": 5354,
      "raz": 5355,
      "αι": 5356,
      "▁Off": 5357,
      "ंस": 5358,
      "gar": 5359,
      "▁swe": 5360,
      "▁ka": 5361,
      "▁hy": 5362,
      "▁ก": 5363,
      "ithub": 5364,
      "▁April": 5365,
      "etch": 5366,
      "▁worth": 5367,
      "▁software": 5368,
      "ूप": 5369,
      "▁reach": 5370,
      "▁situation": 5371,
      "▁pul": 5372,
      "oman": 5373,
      "usiness": 5374,
      "▁Sub": 5375,
      "▁President": 5376,
      "ago": 5377,
      "▁led": 5378,
      "cia": 5379,
      "▁va": 5380,
      "ット": 5381,
      "▁cert": 5382,
      "▁save": 5383,
      "▁costs": 5384,
      "▁fish": 5385,
      "▁있": 5386,
      "▁heat": 5387,
      "illed": 5388,
      "rea": 5389,
      "▁、": 5390,
      "ít": 5391,
      "ない": 5392,
      "▁Just": 5393,
      "▁ba": 5394,
      "▁meeting": 5395,
      "▁actual": 5396,
      "','": 5397,
      "▁demon": 5398,
      "si": 5399,
      "jo": 5400,
      "▁altern": 5401,
      "▁designed": 5402,
      "Menu": 5403,
      "▁symbol": 5404,
      "▁resources": 5405,
      "}-\\": 5406,
      "▁House": 5407,
      "নের": 5408,
      "रो": 5409,
      "▁song": 5410,
      "izes": 5411,
      "spring": 5412,
      "▁subst": 5413,
      "▁کو": 5414,
      "▁factor": 5415,
      "▁margin": 5416,
      "▁materials": 5417,
      "▁involved": 5418,
      "ân": 5419,
      "▁phase": 5420,
      "orith": 5421,
      "▁English": 5422,
      "▁hat": 5423,
      "খন": 5424,
      "▁ur": 5425,
      "▁bes": 5426,
      "▁cool": 5427,
      "▁practice": 5428,
      "ор": 5429,
      "SON": 5430,
      "▁construction": 5431,
      "parent": 5432,
      "▁note": 5433,
      "▁solutions": 5434,
      "▁সং": 5435,
      "▁ç": 5436,
      "▁rev": 5437,
      "াবে": 5438,
      "det": 5439,
      "gn": 5440,
      "▁rock": 5441,
      "▁sea": 5442,
      "Drawing": 5443,
      "aled": 5444,
      "aling": 5445,
      "ется": 5446,
      "cell": 5447,
      "াকি": 5448,
      "irit": 5449,
      "▁None": 5450,
      "agen": 5451,
      "▁became": 5452,
      "▁mid": 5453,
      "▁compar": 5454,
      "last": 5455,
      "▁statement": 5456,
      "](": 5457,
      "▁μ": 5458,
      "▁throughout": 5459,
      "▁Ke": 5460,
      "▁kom": 5461,
      "wide": 5462,
      "▁sold": 5463,
      "▁machine": 5464,
      "াপ": 5465,
      "Att": 5466,
      "▁directly": 5467,
      "flo": 5468,
      "▁offers": 5469,
      "▁জন্য": 5470,
      "Step": 5471,
      "▁बी": 5472,
      "lig": 5473,
      "▁mu": 5474,
      "Acc": 5475,
      "▁మ": 5476,
      "ouncil": 5477,
      "▁thus": 5478,
      "svg": 5479,
      "▁ला": 5480,
      "स्थ": 5481,
      "izer": 5482,
      "▁compared": 5483,
      "▁players": 5484,
      "▁investig": 5485,
      "endant": 5486,
      "pid": 5487,
      "्रे": 5488,
      "▁मे": 5489,
      "▁Work": 5490,
      "SI": 5491,
      "▁conv": 5492,
      "Em": 5493,
      "▁उप": 5494,
      "FF": 5495,
      "▁liter": 5496,
      "▁pretty": 5497,
      "▁sample": 5498,
      "▁population": 5499,
      "▁brand": 5500,
      "▁voc": 5501,
      "ialog": 5502,
      "but": 5503,
      "ashing": 5504,
      "▁July": 5505,
      "▁opportunity": 5506,
      "▁themselves": 5507,
      "▁ready": 5508,
      "लो": 5509,
      "▁apply": 5510,
      "cz": 5511,
      "▁pun": 5512,
      "▁celebr": 5513,
      "rad": 5514,
      "aux": 5515,
      "nen": 5516,
      "▁Of": 5517,
      "▁deliver": 5518,
      "▁ро": 5519,
      "▁സ": 5520,
      "base": 5521,
      "ैसे": 5522,
      "ছিল": 5523,
      "▁hit": 5524,
      "▁pued": 5525,
      "▁medical": 5526,
      "▁economic": 5527,
      "▁frame": 5528,
      "Det": 5529,
      "och": 5530,
      "▁па": 5531,
      "rs": 5532,
      "▁lic": 5533,
      "iven": 5534,
      "▁developed": 5535,
      "▁charge": 5536,
      "oma": 5537,
      "eval": 5538,
      "▁rele": 5539,
      "▁selected": 5540,
      "ানে": 5541,
      "▁volume": 5542,
      "lation": 5543,
      "த்து": 5544,
      "▁করা": 5545,
      "]{": 5546,
      "lich": 5547,
      "Te": 5548,
      "rupt": 5549,
      "mitted": 5550,
      "([": 5551,
      "▁stage": 5552,
      "illa": 5553,
      "▁Health": 5554,
      "uth": 5555,
      "icient": 5556,
      "▁species": 5557,
      "▁dou": 5558,
      "▁scale": 5559,
      "یر": 5560,
      "▁Black": 5561,
      "▁numer": 5562,
      "▁\":": 5563,
      "র্ব": 5564,
      "cap": 5565,
      "Back": 5566,
      "game": 5567,
      "▁Austral": 5568,
      "▁recently": 5569,
      "▁Department": 5570,
      "▁avoid": 5571,
      "▁za": 5572,
      "ji": 5573,
      "้า": 5574,
      "▁suff": 5575,
      "more": 5576,
      "▁reference": 5577,
      "▁Ret": 5578,
      "▁ki": 5579,
      "BS": 5580,
      "▁aus": 5581,
      "▁emer": 5582,
      "▁easily": 5583,
      "▁दिया": 5584,
      "▁operation": 5585,
      "client": 5586,
      "▁Mat": 5587,
      "▁release": 5588,
      "▁police": 5589,
      "▁Text": 5590,
      "▁acqu": 5591,
      "ất": 5592,
      "abled": 5593,
      "has": 5594,
      "▁commer": 5595,
      "▁ability": 5596,
      "▁morning": 5597,
      "urance": 5598,
      "ষ্ট": 5599,
      "eps": 5600,
      "▁wonder": 5601,
      "▁customer": 5602,
      "▁connection": 5603,
      "▁trou": 5604,
      "Selector": 5605,
      "ष्ट": 5606,
      "cher": 5607,
      "▁assess": 5608,
      "▁progress": 5609,
      "RI": 5610,
      "▁driv": 5611,
      "▁Since": 5612,
      "▁అ": 5613,
      "erve": 5614,
      "ses": 5615,
      "▁ना": 5616,
      "▁الت": 5617,
      "▁names": 5618,
      "▁expression": 5619,
      "▁बना": 5620,
      "ید": 5621,
      "soft": 5622,
      "arden": 5623,
      "iler": 5624,
      ")^{": 5625,
      "aly": 5626,
      "▁vert": 5627,
      "▁located": 5628,
      "ls": 5629,
      "▁remember": 5630,
      "▁hi": 5631,
      "▁سے": 5632,
      "▁currently": 5633,
      "▁ঘ": 5634,
      "CA": 5635,
      "ార": 5636,
      "▁і": 5637,
      "ска": 5638,
      "nya": 5639,
      "number": 5640,
      "▁Out": 5641,
      "▁Mus": 5642,
      "[\\": 5643,
      "pol": 5644,
      "▁towards": 5645,
      "▁safety": 5646,
      "▁stri": 5647,
      "arily": 5648,
      "▁ва": 5649,
      "▁जिस": 5650,
      "olean": 5651,
      "btn": 5652,
      "header": 5653,
      "target": 5654,
      "▁absol": 5655,
      "▁Feb": 5656,
      "ila": 5657,
      "▁बता": 5658,
      "push": 5659,
      "nu": 5660,
      "▁Air": 5661,
      "▁playing": 5662,
      "▁physical": 5663,
      "ende": 5664,
      "▁sho": 5665,
      "▁dengan": 5666,
      "चा": 5667,
      "▁himself": 5668,
      "য়া": 5669,
      "▁leaders": 5670,
      "▁goal": 5671,
      "PL": 5672,
      "/**": 5673,
      "▁Net": 5674,
      "▁construct": 5675,
      "▁negative": 5676,
      "▁Hol": 5677,
      "िल्": 5678,
      "▁sich": 5679,
      "ema": 5680,
      "iki": 5681,
      "▁ot": 5682,
      "▁increasing": 5683,
      "ंत्र": 5684,
      "ठी": 5685,
      "▁attempt": 5686,
      "▁ded": 5687,
      "▁আর": 5688,
      "▁kit": 5689,
      "spec": 5690,
      "ба": 5691,
      "ivil": 5692,
      "▁bag": 5693,
      "ttp": 5694,
      "▁weeks": 5695,
      "▁સ": 5696,
      "▁drive": 5697,
      "▁Sie": 5698,
      "▁projects": 5699,
      "▁attention": 5700,
      "ün": 5701,
      "▁switch": 5702,
      ",\\": 5703,
      "▁nucle": 5704,
      "▁instance": 5705,
      "டி": 5706,
      "▁professional": 5707,
      "▁purpose": 5708,
      "▁nut": 5709,
      "ancy": 5710,
      "▁America": 5711,
      "▁writing": 5712,
      "cular": 5713,
      "ại": 5714,
      "▁Here": 5715,
      "▁skin": 5716,
      "▁bur": 5717,
      "▁Sol": 5718,
      "▁shot": 5719,
      "▁accur": 5720,
      "}.": 5721,
      "▁ε": 5722,
      "▁eine": 5723,
      "▁looks": 5724,
      "zt": 5725,
      "▁rights": 5726,
      "▁fill": 5727,
      "semb": 5728,
      "▁August": 5729,
      "anner": 5730,
      "ओं": 5731,
      "▁nicht": 5732,
      "asons": 5733,
      "▁files": 5734,
      "ुल": 5735,
      "▁मैं": 5736,
      "aste": 5737,
      "send": 5738,
      "▁comment": 5739,
      "▁पहले": 5740,
      "▁Fe": 5741,
      "fa": 5742,
      "▁zero": 5743,
      "عد": 5744,
      "▁lost": 5745,
      "▁होता": 5746,
      "ruit": 5747,
      "atively": 5748,
      "req": 5749,
      "▁ಮ": 5750,
      "uan": 5751,
      "▁И": 5752,
      "Activity": 5753,
      "▁trade": 5754,
      "▁Bro": 5755,
      "▁fresh": 5756,
      "▁Mich": 5757,
      "▁उन्ह": 5758,
      "يد": 5759,
      "▁nav": 5760,
      "ন্দ": 5761,
      "▁Court": 5762,
      "}}{": 5763,
      "▁farm": 5764,
      "▁উপ": 5765,
      "Rec": 5766,
      "plot": 5767,
      "eller": 5768,
      "▁whose": 5769,
      "▁appropri": 5770,
      "Style": 5771,
      "▁একটি": 5772,
      "▁observed": 5773,
      "▁Data": 5774,
      "▁மு": 5775,
      "▁motion": 5776,
      "▁wide": 5777,
      "She": 5778,
      "जा": 5779,
      "space": 5780,
      "▁gar": 5781,
      "OGRAM": 5782,
      "▁maximum": 5783,
      "्यू": 5784,
      "▁International": 5785,
      "▁restaur": 5786,
      "▁ta": 5787,
      "▁meng": 5788,
      "▁capt": 5789,
      "AY": 5790,
      "fit": 5791,
      "▁electron": 5792,
      "▁على": 5793,
      "▁करते": 5794,
      "ogen": 5795,
      "▁County": 5796,
      "Inst": 5797,
      "क्र": 5798,
      "ুন": 5799,
      "▁vir": 5800,
      "▁হয়ে": 5801,
      "▁degree": 5802,
      "▁Test": 5803,
      "rier": 5804,
      "hol": 5805,
      "ker": 5806,
      "▁ট": 5807,
      "▁dress": 5808,
      "▁limited": 5809,
      "CTOGRAM": 5810,
      "▁figure": 5811,
      "eli": 5812,
      "▁dur": 5813,
      "су": 5814,
      "▁그": 5815,
      "িয়া": 5816,
      "▁sont": 5817,
      "▁China": 5818,
      "▁demonstr": 5819,
      "Char": 5820,
      "roy": 5821,
      "▁dies": 5822,
      "জন": 5823,
      "اس": 5824,
      "Source": 5825,
      "▁reve": 5826,
      "▁Up": 5827,
      "▁vac": 5828,
      "oding": 5829,
      "▁leading": 5830,
      "▁CH": 5831,
      "▁amb": 5832,
      "▁Set": 5833,
      "orge": 5834,
      "▁exerc": 5835,
      "otes": 5836,
      "ovember": 5837,
      "স্থ": 5838,
      "ის": 5839,
      "▁recommend": 5840,
      "▁View": 5841,
      "▁equipment": 5842,
      "long": 5843,
      "▁ये": 5844,
      "ებ": 5845,
      "github": 5846,
      "VID": 5847,
      "▁ऐ": 5848,
      "ды": 5849,
      "▁ow": 5850,
      "▁fine": 5851,
      "▁भा": 5852,
      "▁ID": 5853,
      "ém": 5854,
      "▁constit": 5855,
      "EC": 5856,
      "▁September": 5857,
      "▁[%": 5858,
      "▁सभी": 5859,
      "▁London": 5860,
      "ester": 5861,
      "▁allows": 5862,
      "known": 5863,
      "ತ್": 5864,
      "dy": 5865,
      "▁cat": 5866,
      "isi": 5867,
      "edia": 5868,
      "▁yourself": 5869,
      "éd": 5870,
      "▁tro": 5871,
      "▁factors": 5872,
      "▁camera": 5873,
      "▁रहा": 5874,
      "▁stra": 5875,
      "▁„": 5876,
      "▁gave": 5877,
      "▁দেখ": 5878,
      "rew": 5879,
      "eder": 5880,
      "▁ב": 5881,
      "▁organiz": 5882,
      "▁tal": 5883,
      "▁General": 5884,
      "बा": 5885,
      "▁sales": 5886,
      "▁neigh": 5887,
      "▁fair": 5888,
      "▁isn": 5889,
      "▁Direct": 5890,
      "TER": 5891,
      "▁prot": 5892,
      "▁،": 5893,
      "▁resid": 5894,
      "▁செ": 5895,
      "aks": 5896,
      "▁emp": 5897,
      "▁electric": 5898,
      "▁goes": 5899,
      "names": 5900,
      "BC": 5901,
      "ously": 5902,
      "oz": 5903,
      "▁tool": 5904,
      "▁primary": 5905,
      "▁ones": 5906,
      "▁बहु": 5907,
      "▁receive": 5908,
      "level": 5909,
      "্চ": 5910,
      "TS": 5911,
      "▁See": 5912,
      "िख": 5913,
      "tilde": 5914,
      "▁Die": 5915,
      "▁അ": 5916,
      "”,": 5917,
      "▁तर": 5918,
      "▁چ": 5919,
      "UI": 5920,
      "vare": 5921,
      "▁जाए": 5922,
      "ке": 5923,
      "\"))": 5924,
      "વા": 5925,
      "▁approxim": 5926,
      "▁challeng": 5927,
      "anda": 5928,
      "(-": 5929,
      "product": 5930,
      "▁comfort": 5931,
      "ersion": 5932,
      "▁disease": 5933,
      "▁worked": 5934,
      "iring": 5935,
      ")=\\": 5936,
      "▁priv": 5937,
      "使用": 5938,
      "format": 5939,
      "raphics": 5940,
      "▁server": 5941,
      "uate": 5942,
      "देश": 5943,
      "▁bottom": 5944,
      "▁Mor": 5945,
      "▁mother": 5946,
      "▁Ben": 5947,
      "ంద": 5948,
      "arlier": 5949,
      "Client": 5950,
      "▁مع": 5951,
      "ecause": 5952,
      "dim": 5953,
      "amera": 5954,
      "▁della": 5955,
      "aren": 5956,
      "▁filter": 5957,
      "rench": 5958,
      "▁Form": 5959,
      "▁((": 5960,
      "kin": 5961,
      "▁Techn": 5962,
      "amily": 5963,
      "▁/*": 5964,
      "श्": 5965,
      "react": 5966,
      "ूर": 5967,
      "ानी": 5968,
      "▁ന": 5969,
      "▁Bank": 5970,
      "ষ্": 5971,
      "Figure": 5972,
      "object": 5973,
      "യി": 5974,
      "▁club": 5975,
      "ship": 5976,
      "close": 5977,
      "▁While": 5978,
      "eah": 5979,
      "▁len": 5980,
      "▁است": 5981,
      "umerate": 5982,
      "▁pow": 5983,
      "▁decor": 5984,
      "args": 5985,
      "write": 5986,
      "▁tod": 5987,
      "Go": 5988,
      "▁root": 5989,
      "ians": 5990,
      "Gener": 5991,
      "лі": 5992,
      "лен": 5993,
      "▁इन": 5994,
      "▁untuk": 5995,
      "aciones": 5996,
      "rum": 5997,
      "////////": 5998,
      "idden": 5999,
      "getElement": 6000,
      "▁pu": 6001,
      "▁कहा": 6002,
      "েল": 6003,
      "sor": 6004,
      "first": 6005,
      "▁под": 6006,
      "▁Service": 6007,
      "ная": 6008,
      "లు": 6009,
      "update": 6010,
      "summary": 6011,
      "▁hydro": 6012,
      "▁reading": 6013,
      "▁মু": 6014,
      "osis": 6015,
      "(){": 6016,
      "वे": 6017,
      "ত্র": 6018,
      "▁insp": 6019,
      "urrent": 6020,
      "ंध": 6021,
      "▁Center": 6022,
      "itect": 6023,
      "clude": 6024,
      "▁sel": 6025,
      "▁മ": 6026,
      "▁January": 6027,
      "psilon": 6028,
      "▁middle": 6029,
      "lam": 6030,
      "তা": 6031,
      "abil": 6032,
      "Us": 6033,
      "ीडियो": 6034,
      "▁requirements": 6035,
      "gest": 6036,
      "▁হই": 6037,
      "▁als": 6038,
      "uffer": 6039,
      "िका": 6040,
      "▁ব্য": 6041,
      "▁Il": 6042,
      "▁sex": 6043,
      "ний": 6044,
      "দেশ": 6045,
      "pace": 6046,
      "local": 6047,
      "жно": 6048,
      "▁moving": 6049,
      "▁mole": 6050,
      "▁func": 6051,
      "hal": 6052,
      "getElementById": 6053,
      "▁determine": 6054,
      "▁applied": 6055,
      "▁Japan": 6056,
      "ões": 6057,
      "तर": 6058,
      "avax": 6059,
      "▁handle": 6060,
      "term": 6061,
      "▁situ": 6062,
      "▁Dist": 6063,
      "▁letter": 6064,
      "▁King": 6065,
      "ignment": 6066,
      "▁virt": 6067,
      "istory": 6068,
      "ोट": 6069,
      "▁advant": 6070,
      "▁हा": 6071,
      "▁upd": 6072,
      "▁theory": 6073,
      "▁began": 6074,
      "Pan": 6075,
      "struct": 6076,
      "▁quickly": 6077,
      "weight": 6078,
      "▁basic": 6079,
      "ocol": 6080,
      "▁carry": 6081,
      "▁central": 6082,
      "▁picture": 6083,
      "▁aspect": 6084,
      "▁Di": 6085,
      "estern": 6086,
      "witter": 6087,
      "▁స": 6088,
      "▁кото": 6089,
      "menu": 6090,
      "adow": 6091,
      "▁drink": 6092,
      "▁fight": 6093,
      "▁वीडियो": 6094,
      "▁produced": 6095,
      "▁somet": 6096,
      "▁contains": 6097,
      "ंप": 6098,
      "oti": 6099,
      "▁az": 6100,
      "▁contribut": 6101,
      "core": 6102,
      "▁भार": 6103,
      "las": 6104,
      "মান": 6105,
      "ptions": 6106,
      "Forms": 6107,
      "▁PI": 6108,
      "venue": 6109,
      "▁Government": 6110,
      "▁brought": 6111,
      "▁highly": 6112,
      "▁matrix": 6113,
      "▁eyes": 6114,
      "▁TV": 6115,
      "क्स": 6116,
      "enge": 6117,
      "▁não": 6118,
      "▁א": 6119,
      "SP": 6120,
      "▁interesting": 6121,
      "▁Sen": 6122,
      "ocr": 6123,
      "eds": 6124,
      "haps": 6125,
      "Response": 6126,
      "bum": 6127,
      "▁famil": 6128,
      "ungen": 6129,
      "▁skills": 6130,
      "▁($": 6131,
      "apping": 6132,
      "▁wrong": 6133,
      "▁Mal": 6134,
      "بر": 6135,
      "NE": 6136,
      "▁parameters": 6137,
      "▁labor": 6138,
      "etic": 6139,
      "▁ત": 6140,
      "():": 6141,
      "▁می": 6142,
      "<<": 6143,
      "▁vict": 6144,
      "▁internal": 6145,
      "mooth": 6146,
      "▁си": 6147,
      "grad": 6148,
      "▁सकते": 6149,
      "▁वर्": 6150,
      "▁although": 6151,
      "eline": 6152,
      "▁wa": 6153,
      "▁join": 6154,
      "ifest": 6155,
      "▁Day": 6156,
      "▁rule": 6157,
      "▁î": 6158,
      "▁پر": 6159,
      "params": 6160,
      "std": 6161,
      "emos": 6162,
      "host": 6163,
      "いる": 6164,
      "hest": 6165,
      "ensions": 6166,
      "▁py": 6167,
      "▁Instit": 6168,
      "sol": 6169,
      "▁वह": 6170,
      "▁cast": 6171,
      "▁feet": 6172,
      "िट": 6173,
      "gs": 6174,
      "iro": 6175,
      "▁lives": 6176,
      "▁á": 6177,
      "▁uses": 6178,
      "▁পা": 6179,
      "▁স্ব": 6180,
      "ック": 6181,
      "▁applications": 6182,
      "aign": 6183,
      "▁throw": 6184,
      "▁determined": 6185,
      "▁liqu": 6186,
      "об": 6187,
      "rec": 6188,
      "ción": 6189,
      "Read": 6190,
      "▁بر": 6191,
      "▁fields": 6192,
      "ша": 6193,
      "ulf": 6194,
      "▁proposed": 6195,
      "▁collect": 6196,
      "iber": 6197,
      "▁October": 6198,
      "▁Calif": 6199,
      "efore": 6200,
      "project": 6201,
      "pite": 6202,
      "▁Pal": 6203,
      "miss": 6204,
      "▁serious": 6205,
      "utive": 6206,
      "▁president": 6207,
      "▁allowed": 6208,
      "!--": 6209,
      "▁render": 6210,
      "▁metal": 6211,
      "▁presented": 6212,
      "▁patient": 6213,
      "▁kids": 6214,
      "ങ്": 6215,
      ")$,": 6216,
      "iers": 6217,
      "▁firm": 6218,
      "▁presence": 6219,
      "▁lack": 6220,
      "……": 6221,
      "▁थी": 6222,
      "AND": 6223,
      "▁rates": 6224,
      "▁Indian": 6225,
      "ಲ್": 6226,
      "▁está": 6227,
      "▁แ": 6228,
      "inder": 6229,
      "▁shape": 6230,
      "enty": 6231,
      "▁mess": 6232,
      "▁candid": 6233,
      "har": 6234,
      "▁sale": 6235,
      "▁variety": 6236,
      "▁components": 6237,
      "aka": 6238,
      "otion": 6239,
      "▁nie": 6240,
      "াকিস্ত": 6241,
      "rowser": 6242,
      "▁November": 6243,
      "anta": 6244,
      "▁enh": 6245,
      "▁ড": 6246,
      "▁spring": 6247,
      "▁Det": 6248,
      "▁books": 6249,
      "▁starting": 6250,
      "ये": 6251,
      "он": 6252,
      "▁adjust": 6253,
      "▁tor": 6254,
      "aven": 6255,
      "▁các": 6256,
      "TO": 6257,
      "▁کا": 6258,
      "After": 6259,
      "ulated": 6260,
      "▁organization": 6261,
      "▁temp": 6262,
      "amm": 6263,
      "bin": 6264,
      "source": 6265,
      "ции": 6266,
      "▁lay": 6267,
      "▁larger": 6268,
      "▁completely": 6269,
      "DB": 6270,
      "▁nor": 6271,
      "▁Bi": 6272,
      "▁Associ": 6273,
      "▁Table": 6274,
      "response": 6275,
      "▁tut": 6276,
      "▁ú": 6277,
      "icas": 6278,
      "lem": 6279,
      "connect": 6280,
      "▁square": 6281,
      "▁auto": 6282,
      "▁mys": 6283,
      "]);": 6284,
      "▁Vol": 6285,
      "▁emb": 6286,
      "rief": 6287,
      "▁True": 6288,
      "nie": 6289,
      "▁nice": 6290,
      "ów": 6291,
      "▁pel": 6292,
      "▁imag": 6293,
      "Do": 6294,
      "▁giving": 6295,
      "▁parents": 6296,
      "raf": 6297,
      "acer": 6298,
      "▁dry": 6299,
      "▁बहुत": 6300,
      "ха": 6301,
      "Start": 6302,
      "▁notice": 6303,
      "ัน": 6304,
      "ERS": 6305,
      "root": 6306,
      "card": 6307,
      "▁Group": 6308,
      "▁roll": 6309,
      "▁storage": 6310,
      "▁milit": 6311,
      "Default": 6312,
      "ને": 6313,
      "acht": 6314,
      "berg": 6315,
      "▁tend": 6316,
      "▁score": 6317,
      "▁vill": 6318,
      "▁Sal": 6319,
      "vari": 6320,
      "▁स्थ": 6321,
      "▁UK": 6322,
      "ifying": 6323,
      "▁পরি": 6324,
      "hood": 6325,
      "▁از": 6326,
      "▁credit": 6327,
      "win": 6328,
      "CD": 6329,
      "▁existing": 6330,
      "▁dynam": 6331,
      "▁strength": 6332,
      "rive": 6333,
      "▁career": 6334,
      "▁cab": 6335,
      "▁చ": 6336,
      "anto": 6337,
      "▁safe": 6338,
      "▁sust": 6339,
      "▁fully": 6340,
      "netic": 6341,
      "▁aim": 6342,
      "▁cart": 6343,
      "}}$": 6344,
      "▁felt": 6345,
      "ார": 6346,
      "▁piece": 6347,
      "ABLE": 6348,
      "▁remove": 6349,
      "▁achieve": 6350,
      "ột": 6351,
      "▁layer": 6352,
      "▁father": 6353,
      "IF": 6354,
      "▁ét": 6355,
      "▁poly": 6356,
      "lu": 6357,
      "querySelector": 6358,
      "CON": 6359,
      "▁produce": 6360,
      "▁assist": 6361,
      "▁tamb": 6362,
      "ನ್": 6363,
      "▁hous": 6364,
      "▁ci": 6365,
      "▁rules": 6366,
      "house": 6367,
      "alty": 6368,
      "▁legal": 6369,
      "▁seek": 6370,
      "iciency": 6371,
      "That": 6372,
      "▁linear": 6373,
      "▁touch": 6374,
      "Location": 6375,
      "▁daily": 6376,
      "▁ли": 6377,
      "vention": 6378,
      "ieved": 6379,
      "▁তাহ": 6380,
      "▁stream": 6381,
      "▁paid": 6382,
      "▁args": 6383,
      "▁December": 6384,
      "▁esc": 6385,
      "author": 6386,
      "▁movie": 6387,
      "▁все": 6388,
      "▁सर": 6389,
      "ده": 6390,
      "amento": 6391,
      "gener": 6392,
      "দি": 6393,
      "され": 6394,
      "▁Cap": 6395,
      "antes": 6396,
      "▁aux": 6397,
      "Rep": 6398,
      "ashion": 6399,
      "▁Main": 6400,
      "▁cit": 6401,
      "▁tom": 6402,
      "▁कुछ": 6403,
      "पी": 6404,
      "ικ": 6405,
      "ounced": 6406,
      "▁clin": 6407,
      "ết": 6408,
      "AGE": 6409,
      "▁station": 6410,
      "chi": 6411,
      "▁particularly": 6412,
      "▁floor": 6413,
      "لی": 6414,
      "ael": 6415,
      "idade": 6416,
      "▁benefits": 6417,
      "▁showed": 6418,
      "▁CON": 6419,
      "▁saying": 6420,
      "rio": 6421,
      "▁yield": 6422,
      "empl": 6423,
      "▁जाता": 6424,
      "▁cloud": 6425,
      "▁forest": 6426,
      "counter": 6427,
      "rote": 6428,
      "▁supply": 6429,
      "****************": 6430,
      "▁ko": 6431,
      "▁surpr": 6432,
      "ेंट": 6433,
      "ename": 6434,
      "وس": 6435,
      "▁tools": 6436,
      "▁·": 6437,
      "Om": 6438,
      "▁reduce": 6439,
      "▁detect": 6440,
      "idos": 6441,
      "ricult": 6442,
      "▁\"\\": 6443,
      "ство": 6444,
      "Now": 6445,
      "rome": 6446,
      "ação": 6447,
      "▁ಸ": 6448,
      "process": 6449,
      "ccc": 6450,
      "▁kon": 6451,
      "▁stru": 6452,
      "ffee": 6453,
      "________": 6454,
      "null": 6455,
      "▁tit": 6456,
      "store": 6457,
      "server": 6458,
      "CR": 6459,
      "under": 6460,
      "ez": 6461,
      "IO": 6462,
      "▁download": 6463,
      "▁Ma": 6464,
      "ní": 6465,
      "ある": 6466,
      "▁prepar": 6467,
      "▁hour": 6468,
      "▁published": 6469,
      "ég": 6470,
      "▁variable": 6471,
      "▁bien": 6472,
      "press": 6473,
      "▁motor": 6474,
      "▁Google": 6475,
      "▁Sa": 6476,
      "▁fat": 6477,
      "▁session": 6478,
      "varepsilon": 6479,
      "▁cm": 6480,
      "Let": 6481,
      "android": 6482,
      "▁auch": 6483,
      "▁doc": 6484,
      "▁plants": 6485,
      "▁Sur": 6486,
      "▁Tra": 6487,
      "ري": 6488,
      "bu": 6489,
      "▁»": 6490,
      "▁Г": 6491,
      "▁description": 6492,
      "van": 6493,
      "▁sometimes": 6494,
      "▁slight": 6495,
      "▁ju": 6496,
      "clusion": 6497,
      "▁Research": 6498,
      "outer": 6499,
      "ھی": 6500,
      "▁Spec": 6501,
      "components": 6502,
      "▁Company": 6503,
      "▁på": 6504,
      "вер": 6505,
      "▁ult": 6506,
      "UP": 6507,
      "▁tip": 6508,
      "(&": 6509,
      "NS": 6510,
      "▁resource": 6511,
      "akt": 6512,
      "പ്": 6513,
      "▁setting": 6514,
      "raint": 6515,
      "frame": 6516,
      "▁earlier": 6517,
      "▁format": 6518,
      "▁ин": 6519,
      "спо": 6520,
      "▁Develop": 6521,
      "ів": 6522,
      "iner": 6523,
      "▁latest": 6524,
      "aba": 6525,
      "ruary": 6526,
      "▁prices": 6527,
      "actory": 6528,
      "లో": 6529,
      "▁fixed": 6530,
      "▁Post": 6531,
      "▁জান": 6532,
      "▁anyone": 6533,
      "▁beginning": 6534,
      "▁closed": 6535,
      "▁fol": 6536,
      "azione": 6537,
      "▁smart": 6538,
      "Compat": 6539,
      "▁culture": 6540,
      "▁capacity": 6541,
      "▁Also": 6542,
      "▁מ": 6543,
      "▁decided": 6544,
      "▁आहे": 6545,
      "гра": 6546,
      "▁Math": 6547,
      "▁Met": 6548,
      "▁ideas": 6549,
      "▁सो": 6550,
      "▁mobile": 6551,
      "BA": 6552,
      "TR": 6553,
      "▁paint": 6554,
      "▁steps": 6555,
      "oom": 6556,
      "▁dir": 6557,
      "কা": 6558,
      "▁opin": 6559,
      "▁excell": 6560,
      "ैन": 6561,
      "▁Super": 6562,
      "▁Law": 6563,
      "icos": 6564,
      "acement": 6565,
      "▁relev": 6566,
      "enumerate": 6567,
      "▁stick": 6568,
      "প্র": 6569,
      "dr": 6570,
      "▁memory": 6571,
      "try": 6572,
      "▁wind": 6573,
      "▁ל": 6574,
      "yr": 6575,
      "▁apart": 6576,
      "▁वे": 6577,
      "lik": 6578,
      "▁পাকিস্ত": 6579,
      "▁बात": 6580,
      "▁formula": 6581,
      "▁dead": 6582,
      "्ल": 6583,
      "▁chance": 6584,
      "▁processes": 6585,
      "▁rob": 6586,
      "attr": 6587,
      "▁चाह": 6588,
      "▁eight": 6589,
      "▁meaning": 6590,
      "▁ww": 6591,
      "iny": 6592,
      "্ন": 6593,
      "EY": 6594,
      "▁successful": 6595,
      "▁math": 6596,
      "PA": 6597,
      "olf": 6598,
      "्रा": 6599,
      "▁doll": 6600,
      "ques": 6601,
      "pload": 6602,
      "▁algorith": 6603,
      "=\"#": 6604,
      "▁<=": 6605,
      "▁norm": 6606,
      "▁programs": 6607,
      "▁reaction": 6608,
      "▁jo": 6609,
      "▁\"$": 6610,
      "▁understanding": 6611,
      "▁थे": 6612,
      "▁Mag": 6613,
      "▁plans": 6614,
      "lands": 6615,
      "ál": 6616,
      "framework": 6617,
      "▁consult": 6618,
      "▁respectively": 6619,
      "▁bond": 6620,
      "тель": 6621,
      "inct": 6622,
      "▁lock": 6623,
      "▁Dan": 6624,
      "▁إ": 6625,
      "ornia": 6626,
      "▁partners": 6627,
      "anged": 6628,
      "किन": 6629,
      "▁units": 6630,
      "▁Thus": 6631,
      "iments": 6632,
      "▁ба": 6633,
      "▁hospital": 6634,
      "▁commercial": 6635,
      "ova": 6636,
      "▁earn": 6637,
      "▁connected": 6638,
      "call": 6639,
      "লাম": 6640,
      "▁followed": 6641,
      "▁Dem": 6642,
      "▁২": 6643,
      "▁Char": 6644,
      "omas": 6645,
      "icrosoft": 6646,
      "▁science": 6647,
      "▁flat": 6648,
      "peed": 6649,
      "ño": 6650,
      "▁counter": 6651,
      "sch": 6652,
      "iform": 6653,
      "Co": 6654,
      "▁providing": 6655,
      "▁encour": 6656,
      "▁played": 6657,
      "▁relative": 6658,
      "▁را": 6659,
      "▁amaz": 6660,
      "▁че": 6661,
      "▁ی": 6662,
      "▁Rem": 6663,
      "PRO": 6664,
      "default": 6665,
      "▁places": 6666,
      "▁forms": 6667,
      "CTION": 6668,
      "र्म": 6669,
      "▁Serv": 6670,
      "ться": 6671,
      "▁traditional": 6672,
      "Interface": 6673,
      "▁broad": 6674,
      "▁operations": 6675,
      "ுக": 6676,
      "cles": 6677,
      "stream": 6678,
      "▁Class": 6679,
      "bbox": 6680,
      "▁birth": 6681,
      "िश": 6682,
      "eting": 6683,
      "▁useful": 6684,
      "▁optim": 6685,
      "ju": 6686,
      "▁Sam": 6687,
      "uman": 6688,
      "▁जान": 6689,
      "▁пере": 6690,
      "▁Arm": 6691,
      "▁changed": 6692,
      "▁European": 6693,
      "イン": 6694,
      "лы": 6695,
      "▁wat": 6696,
      "▁established": 6697,
      "inger": 6698,
      "ugin": 6699,
      "Am": 6700,
      "▁resol": 6701,
      "▁অব": 6702,
      "ctors": 6703,
      "▁photos": 6704,
      "abb": 6705,
      "▁Fin": 6706,
      "sg": 6707,
      "fol": 6708,
      "▁scient": 6709,
      "▁innov": 6710,
      "ày": 6711,
      "▁therm": 6712,
      "▁nu": 6713,
      "рова": 6714,
      "▁Hel": 6715,
      "▁cru": 6716,
      "Status": 6717,
      "▁Street": 6718,
      "python": 6719,
      "Fl": 6720,
      "Web": 6721,
      "ров": 6722,
      "ying": 6723,
      "تر": 6724,
      "total": 6725,
      "nel": 6726,
      "▁pair": 6727,
      "▁reserv": 6728,
      "▁www": 6729,
      "▁growing": 6730,
      "itar": 6731,
      "ược": 6732,
      "▁protection": 6733,
      "asa": 6734,
      "▁Je": 6735,
      "draw": 6736,
      "▁strateg": 6737,
      "URL": 6738,
      "▁sell": 6739,
      "enses": 6740,
      "▁pou": 6741,
      "▁Figure": 6742,
      "▁dari": 6743,
      "*/": 6744,
      "▁sleep": 6745,
      "Mode": 6746,
      "ുന്ന": 6747,
      "'.": 6748,
      "▁critical": 6749,
      "akers": 6750,
      "ART": 6751,
      "▁Bel": 6752,
      "لم": 6753,
      "▁করতে": 6754,
      "▁वाले": 6755,
      "▁चु": 6756,
      "▁gets": 6757,
      "lections": 6758,
      "Link": 6759,
      "▁TO": 6760,
      "ના": 6761,
      "▁protein": 6762,
      "▁છ": 6763,
      "Comm": 6764,
      "▁अनु": 6765,
      "lose": 6766,
      "▁bey": 6767,
      "▁Paul": 6768,
      "Param": 6769,
      "▁uns": 6770,
      "▁vent": 6771,
      "मान": 6772,
      "remove": 6773,
      "email": 6774,
      "▁becomes": 6775,
      "Application": 6776,
      "്യ": 6777,
      "▁expand": 6778,
      "▁adult": 6779,
      "▁appropriate": 6780,
      "▁তিনি": 6781,
      "▁overall": 6782,
      "column": 6783,
      "▁sand": 6784,
      "ोल": 6785,
      "CS": 6786,
      "▁fab": 6787,
      "ৃত": 6788,
      "▁secret": 6789,
      "ocity": 6790,
      "▁(\"": 6791,
      "▁আপ": 6792,
      "aten": 6793,
      "▁wave": 6794,
      "etime": 6795,
      "free": 6796,
      "च्च": 6797,
      "▁surv": 6798,
      "▁selection": 6799,
      "▁carbon": 6800,
      "reci": 6801,
      "iance": 6802,
      "▁float": 6803,
      "Task": 6804,
      "unit": 6805,
      "லை": 6806,
      "▁showing": 6807,
      "▁repe": 6808,
      "▁Date": 6809,
      ".\\": 6810,
      "▁released": 6811,
      "▁turned": 6812,
      "यर": 6813,
      "ipe": 6814,
      "▁как": 6815,
      "▁generally": 6816,
      "▁ما": 6817,
      "▁register": 6818,
      "▁seven": 6819,
      "▁esta": 6820,
      "riter": 6821,
      "▁David": 6822,
      "func": 6823,
      "▁Program": 6824,
      "▁ஒ": 6825,
      "▁dar": 6826,
      "▁heard": 6827,
      "▁investment": 6828,
      "▁independent": 6829,
      "ORT": 6830,
      "▁menu": 6831,
      "cn": 6832,
      "▁الع": 6833,
      "▁Mart": 6834,
      "▁mac": 6835,
      "iden": 6836,
      "мы": 6837,
      "▁ich": 6838,
      "▁Na": 6839,
      "▁mir": 6840,
      "▁Therefore": 6841,
      "▁immediately": 6842,
      "▁extrem": 6843,
      "▁ಕ": 6844,
      "Check": 6845,
      "▁Les": 6846,
      "▁đi": 6847,
      "mid": 6848,
      "ці": 6849,
      "▁straight": 6850,
      "acters": 6851,
      "ച്": 6852,
      "▁wife": 6853,
      "▁करना": 6854,
      "Ne": 6855,
      "сы": 6856,
      "▁வி": 6857,
      "while": 6858,
      "▁الا": 6859,
      "ildren": 6860,
      "▁finally": 6861,
      "osa": 6862,
      "▁Home": 6863,
      "EO": 6864,
      "duction": 6865,
      "uto": 6866,
      "▁>=": 6867,
      "▁behavior": 6868,
      "▁establish": 6869,
      "Route": 6870,
      "▁och": 6871,
      "▁Prof": 6872,
      "क्षा": 6873,
      "actor": 6874,
      "context": 6875,
      "▁हुए": 6876,
      "▁wild": 6877,
      "▁discover": 6878,
      "▁अब": 6879,
      "▁pp": 6880,
      "▁Commission": 6881,
      "▁pap": 6882,
      "हर": 6883,
      "▁अधिक": 6884,
      "▁Board": 6885,
      "ori": 6886,
      "outes": 6887,
      "fin": 6888,
      "varphi": 6889,
      "▁Use": 6890,
      "▁impl": 6891,
      "▁रूप": 6892,
      "oday": 6893,
      "र्ट": 6894,
      "▁leaves": 6895,
      "imo": 6896,
      "▁ign": 6897,
      "▁rend": 6898,
      "▁hear": 6899,
      "oria": 6900,
      "▁relig": 6901,
      "▁sz": 6902,
      "▁£": 6903,
      "ール": 6904,
      "ंक": 6905,
      "▁بال": 6906,
      "Black": 6907,
      "Handler": 6908,
      "oles": 6909,
      "fill": 6910,
      "geq": 6911,
      "▁व्य": 6912,
      "▁eu": 6913,
      "ville": 6914,
      "▁passed": 6915,
      "select": 6916,
      "udent": 6917,
      "ainer": 6918,
      "uster": 6919,
      "▁ru": 6920,
      "▁mix": 6921,
      "Override": 6922,
      "▁যা": 6923,
      "Create": 6924,
      "▁TH": 6925,
      "icial": 6926,
      "▁rain": 6927,
      "ंबर": 6928,
      "▁mm": 6929,
      "णा": 6930,
      "▁talking": 6931,
      "我们": 6932,
      "▁era": 6933,
      "▁poor": 6934,
      "}^{-": 6935,
      "pred": 6936,
      "▁tab": 6937,
      "▁boy": 6938,
      "▁restrict": 6939,
      "▁Web": 6940,
      "▁corpor": 6941,
      "Vis": 6942,
      "▁क्व": 6943,
      "▁terr": 6944,
      ",'": 6945,
      "iders": 6946,
      "▁iz": 6947,
      "▁ভার": 6948,
      "udi": 6949,
      "▁mentioned": 6950,
      "▁employees": 6951,
      "▁ay": 6952,
      "▁signal": 6953,
      "▁ש": 6954,
      "container": 6955,
      "▁tried": 6956,
      "jection": 6957,
      "ois": 6958,
      "▁scen": 6959,
      "▁Sec": 6960,
      "inese": 6961,
      "▁warm": 6962,
      "▁આ": 6963,
      "Url": 6964,
      "ibly": 6965,
      "split": 6966,
      "Omega": 6967,
      "ted": 6968,
      "▁extends": 6969,
      "undred": 6970,
      "ார்": 6971,
      "▁thinking": 6972,
      "OH": 6973,
      "Write": 6974,
      "েই": 6975,
      "▁looked": 6976,
      "================": 6977,
      "ingu": 6978,
      "'),": 6979,
      "lock": 6980,
      "ander": 6981,
      "▁गई": 6982,
      "ban": 6983,
      "▁performed": 6984,
      ">>": 6985,
      "ει": 6986,
      "▁director": 6987,
      "মি": 6988,
      "▁Mac": 6989,
      "static": 6990,
      "▁У": 6991,
      "▁medic": 6992,
      "▁\\%$": 6993,
      "च्": 6994,
      "▁planning": 6995,
      "▁কা": 6996,
      "itz": 6997,
      "▁beyond": 6998,
      "aughter": 6999,
      "▁appoint": 7000,
      "▁France": 7001,
      "▁balance": 7002,
      "▁trend": 7003,
      "Http": 7004,
      "▁reduced": 7005,
      "▁placed": 7006,
      "▁मो": 7007,
      "AV": 7008,
      "▁marketing": 7009,
      "▁individuals": 7010,
      "element": 7011,
      "sembly": 7012,
      "join": 7013,
      "▁bool": 7014,
      "▁distribut": 7015,
      "▁variables": 7016,
      "oir": 7017,
      "NO": 7018,
      "рав": 7019,
      "▁monitor": 7020,
      "▁sources": 7021,
      "kg": 7022,
      "▁ве": 7023,
      "▁डि": 7024,
      "Gamma": 7025,
      "رب": 7026,
      "্ড": 7027,
      "▁spread": 7028,
      "Call": 7029,
      "▁cop": 7030,
      "รับ": 7031,
      "Star": 7032,
      "▁کہ": 7033,
      "▁Ill": 7034,
      "ால்": 7035,
      "pes": 7036,
      "gt": 7037,
      "▁din": 7038,
      "▁aware": 7039,
      "▁divid": 7040,
      "▁corresponding": 7041,
      "teger": 7042,
      "pet": 7043,
      "гу": 7044,
      "alled": 7045,
      "▁holding": 7046,
      "cin": 7047,
      "▁pand": 7048,
      "▁electr": 7049,
      "▁কোন": 7050,
      "▁কার": 7051,
      "onom": 7052,
      "ची": 7053,
      "|\\": 7054,
      "▁Rev": 7055,
      "lı": 7056,
      "▁alone": 7057,
      "▁Att": 7058,
      "uted": 7059,
      "ashington": 7060,
      "▁হয়": 7061,
      "▁Oh": 7062,
      "चे": 7063,
      ")+": 7064,
      "▁Mem": 7065,
      ")]": 7066,
      "▁Other": 7067,
      "▁eye": 7068,
      "urity": 7069,
      "▁yellow": 7070,
      "INE": 7071,
      "▁Si": 7072,
      "▁campaign": 7073,
      "▁News": 7074,
      "▁spot": 7075,
      "ournal": 7076,
      "igu": 7077,
      "iente": 7078,
      "▁Minister": 7079,
      "▁smooth": 7080,
      "▁minimum": 7081,
      "otic": 7082,
      "્ય": 7083,
      "Open": 7084,
      ".'": 7085,
      "▁Green": 7086,
      "▁requires": 7087,
      "▁sites": 7088,
      "▁lie": 7089,
      "txt": 7090,
      "пу": 7091,
      "▁অন": 7092,
      "▁sets": 7093,
      "▁income": 7094,
      "▁sector": 7095,
      "kh": 7096,
      "▁nation": 7097,
      "▁Cong": 7098,
      "να": 7099,
      "▁smaller": 7100,
      "ymin": 7101,
      "▁channel": 7102,
      "ப்": 7103,
      "ện": 7104,
      "asy": 7105,
      "▁Del": 7106,
      "▁creating": 7107,
      "useum": 7108,
      "▁nearly": 7109,
      "ikan": 7110,
      "cro": 7111,
      "▁damage": 7112,
      "▁coordin": 7113,
      "▁volt": 7114,
      "initely": 7115,
      "▁wooden": 7116,
      "▁Face": 7117,
      "Post": 7118,
      "▁Nor": 7119,
      "onic": 7120,
      "▁exactly": 7121,
      "▁হবে": 7122,
      "▁East": 7123,
      "▁Council": 7124,
      "location": 7125,
      "perties": 7126,
      "▁sau": 7127,
      "private": 7128,
      "▁Any": 7129,
      "مل": 7130,
      "White": 7131,
      "▁frequency": 7132,
      "emp": 7133,
      "▁Well": 7134,
      "xmin": 7135,
      "মা": 7136,
      "▁бе": 7137,
      "poses": 7138,
      "▁sans": 7139,
      "▁transition": 7140,
      "▁bow": 7141,
      "aught": 7142,
      "rics": 7143,
      "▁kan": 7144,
      "▁दी": 7145,
      "▁trees": 7146,
      "▁neut": 7147,
      "xmax": 7148,
      "uri": 7149,
      "nam": 7150,
      "▁California": 7151,
      "▁padding": 7152,
      "ました": 7153,
      "▁javax": 7154,
      "ymax": 7155,
      "ded": 7156,
      "▁core": 7157,
      "▁અ": 7158,
      "ele": 7159,
      "కు": 7160,
      "▁Press": 7161,
      "▁proceed": 7162,
      "Product": 7163,
      "rend": 7164,
      "▁trab": 7165,
      "Ref": 7166,
      "▁Book": 7167,
      "Fe": 7168,
      "springframework": 7169,
      ">(": 7170,
      "front": 7171,
      "DA": 7172,
      "undle": 7173,
      "رح": 7174,
      "swing": 7175,
      "сле": 7176,
      "бе": 7177,
      "▁Over": 7178,
      "▁Check": 7179,
      "anz": 7180,
      "્ર": 7181,
      "▁-->": 7182,
      "▁diagn": 7183,
      "▁ox": 7184,
      "ading": 7185,
      "▁huge": 7186,
      "▁initi": 7187,
      "▁schedu": 7188,
      "▁được": 7189,
      "▁लेकिन": 7190,
      "▁parte": 7191,
      "नों": 7192,
      "MENT": 7193,
      "▁interview": 7194,
      "river": 7195,
      "▁¿": 7196,
      "^{*": 7197,
      "ध्य": 7198,
      "Na": 7199,
      "▁blog": 7200,
      "▁Es": 7201,
      "▁tick": 7202,
      "▁Canada": 7203,
      "▁Loc": 7204,
      "▁baby": 7205,
      "▁wed": 7206,
      "lob": 7207,
      "▁winter": 7208,
      "▁weak": 7209,
      "ategy": 7210,
      "Token": 7211,
      "filter": 7212,
      "iller": 7213,
      "▁Sund": 7214,
      "▁§": 7215,
      "TP": 7216,
      "▁sky": 7217,
      "URE": 7218,
      "(=": 7219,
      "eles": 7220,
      "rd": 7221,
      "▁British": 7222,
      "ffect": 7223,
      "▁grant": 7224,
      "Right": 7225,
      "▁rapid": 7226,
      "ід": 7227,
      "\\{": 7228,
      "▁tid": 7229,
      "▁thous": 7230,
      "emb": 7231,
      "▁ratio": 7232,
      "ears": 7233,
      "▁entry": 7234,
      "ulate": 7235,
      "च्छ": 7236,
      "})$": 7237,
      "▁interpre": 7238,
      "google": 7239,
      "parse": 7240,
      "▁batter": 7241,
      "ार्ट": 7242,
      "---": 7243,
      "odo": 7244,
      "▁continued": 7245,
      "으로": 7246,
      "▁anti": 7247,
      "▁reports": 7248,
      "ства": 7249,
      "▁February": 7250,
      "▁km": 7251,
      "vider": 7252,
      "INT": 7253,
      "▁cryst": 7254,
      "reme": 7255,
      "orph": 7256,
      "▁testing": 7257,
      "▁til": 7258,
      "িন্ত": 7259,
      "ellig": 7260,
      "▁knew": 7261,
      "▁foreign": 7262,
      "▁Mer": 7263,
      "▁इसके": 7264,
      "▁surround": 7265,
      "▁drop": 7266,
      "নার": 7267,
      "ים": 7268,
      "▁По": 7269,
      "ULT": 7270,
      "▁sufficient": 7271,
      "▁ओ": 7272,
      "ME": 7273,
      "▁heavy": 7274,
      "▁angle": 7275,
      "▁อ": 7276,
      "▁mig": 7277,
      "▁lov": 7278,
      "▁रह": 7279,
      "First": 7280,
      "▁cro": 7281,
      "▁č": 7282,
      "▁communication": 7283,
      "break": 7284,
      "hent": 7285,
      "▁White": 7286,
      "▁сво": 7287,
      "গ্র": 7288,
      "▁wasn": 7289,
      "▁পাকিস্তান": 7290,
      "env": 7291,
      "▁cá": 7292,
      "▁none": 7293,
      "▁PC": 7294,
      "▁db": 7295,
      "▁movement": 7296,
      "aria": 7297,
      "▁serve": 7298,
      "▁society": 7299,
      "ို": 7300,
      "▁প্রতি": 7301,
      "tro": 7302,
      "▁Product": 7303,
      "▁spirit": 7304,
      "▁stuff": 7305,
      "Run": 7306,
      "▁dut": 7307,
      "orial": 7308,
      "TON": 7309,
      "▁highest": 7310,
      "unity": 7311,
      "▁chapter": 7312,
      "cu": 7313,
      "▁số": 7314,
      "End": 7315,
      "▁electro": 7316,
      "▁hyp": 7317,
      "▁ছিল": 7318,
      "▁plate": 7319,
      "Br": 7320,
      "▁caused": 7321,
      "ות": 7322,
      "▁Please": 7323,
      "Init": 7324,
      "▁một": 7325,
      "▁bon": 7326,
      "▁यहां": 7327,
      "OU": 7328,
      "ech": 7329,
      "▁Sing": 7330,
      "ät": 7331,
      "DF": 7332,
      "rait": 7333,
      "▁obvious": 7334,
      "coming": 7335,
      "▁જ": 7336,
      "eld": 7337,
      "▁Power": 7338,
      "▁\\\"": 7339,
      "▁Mad": 7340,
      "align": 7341,
      "▁harm": 7342,
      "▁Name": 7343,
      "▁수": 7344,
      "фи": 7345,
      "▁द्व": 7346,
      "▁scre": 7347,
      "bib": 7348,
      "▁ни": 7349,
      "▁loop": 7350,
      "▁helps": 7351,
      "▁convert": 7352,
      "▁exhib": 7353,
      "गत": 7354,
      "urer": 7355,
      "क्त": 7356,
      "▁Sk": 7357,
      "ructure": 7358,
      "▁devices": 7359,
      "riend": 7360,
      "▁Rel": 7361,
      "party": 7362,
      "▁street": 7363,
      "থা": 7364,
      "▁samples": 7365,
      "وب": 7366,
      "'],": 7367,
      "well": 7368,
      "rangle": 7369,
      "▁instr": 7370,
      "▁Section": 7371,
      "ailed": 7372,
      "oder": 7373,
      "бы": 7374,
      "มา": 7375,
      "area": 7376,
      "▁edge": 7377,
      "ologies": 7378,
      "▁বিশ": 7379,
      "মন": 7380,
      "endar": 7381,
      "normal": 7382,
      "▁Los": 7383,
      "▁annual": 7384,
      "osen": 7385,
      "▁लोगों": 7386,
      "ില": 7387,
      "izar": 7388,
      "▁الس": 7389,
      "▁जब": 7390,
      "▁clients": 7391,
      "▁eth": 7392,
      "ae": 7393,
      "▁otherwise": 7394,
      "▁chemical": 7395,
      "Title": 7396,
      "▁Elect": 7397,
      "▁कोई": 7398,
      "ishing": 7399,
      "bur": 7400,
      "▁PICTOGRAM": 7401,
      "othes": 7402,
      "▁кон": 7403,
      "్య": 7404,
      "raction": 7405,
      "▁sie": 7406,
      "entes": 7407,
      "▁purchase": 7408,
      "aga": 7409,
      "▁async": 7410,
      "▁gain": 7411,
      "▁appears": 7412,
      "inated": 7413,
      "window": 7414,
      "ulations": 7415,
      "▁काम": 7416,
      "iat": 7417,
      "izont": 7418,
      "▁actions": 7419,
      "imer": 7420,
      "ிரு": 7421,
      "anging": 7422,
      "▁Public": 7423,
      "▁किसी": 7424,
      "▁vamos": 7425,
      "▁visual": 7426,
      "SC": 7427,
      "itors": 7428,
      "▁Back": 7429,
      "▁College": 7430,
      "▁су": 7431,
      "ेश्च": 7432,
      "inally": 7433,
      "द्ध": 7434,
      "aman": 7435,
      "▁ideal": 7436,
      "ளை": 7437,
      "▁covered": 7438,
      "ạn": 7439,
      "▁attract": 7440,
      "▁mask": 7441,
      "▁ik": 7442,
      "ത്തി": 7443,
      "▁pool": 7444,
      "▁cold": 7445,
      "aintiff": 7446,
      "▁govern": 7447,
      "ोंने": 7448,
      "▁Business": 7449,
      "تا": 7450,
      "▁ಅ": 7451,
      "estion": 7452,
      "دا": 7453,
      "DIR": 7454,
      "▁Cam": 7455,
      "▁cin": 7456,
      "▁sor": 7457,
      "▁benefit": 7458,
      "tex": 7459,
      "ako": 7460,
      "ressed": 7461,
      "?\"": 7462,
      "▁maybe": 7463,
      "▁trial": 7464,
      "ños": 7465,
      "зу": 7466,
      "▁interested": 7467,
      "тов": 7468,
      "▁الأ": 7469,
      "▁ми": 7470,
      "▁होने": 7471,
      "▁magn": 7472,
      "ến": 7473,
      "▁remains": 7474,
      "▁dil": 7475,
      ".).": 7476,
      "Fil": 7477,
      "asta": 7478,
      "cite": 7479,
      "▁Id": 7480,
      "्यों": 7481,
      "rot": 7482,
      "▁reasons": 7483,
      "ца": 7484,
      "big": 7485,
      "▁User": 7486,
      "▁रि": 7487,
      "▁largest": 7488,
      "▁named": 7489,
      "▁incor": 7490,
      "▁क्वेश्च": 7491,
      "▁threat": 7492,
      "}:": 7493,
      "▁사": 7494,
      "▁reflect": 7495,
      "માં": 7496,
      "▁thick": 7497,
      "module": 7498,
      "▁happen": 7499,
      "▁vehicle": 7500,
      "▁sequence": 7501,
      "▁James": 7502,
      "ono": 7503,
      "▁मिल": 7504,
      "▁carried": 7505,
      "▁diam": 7506,
      "▁ship": 7507,
      "layer": 7508,
      "illing": 7509,
      "SH": 7510,
      "رف": 7511,
      "TEXT": 7512,
      "random": 7513,
      "ಲ್ಲ": 7514,
      "scape": 7515,
      "▁excellent": 7516,
      "▁tele": 7517,
      "anya": 7518,
      "▁exists": 7519,
      "gin": 7520,
      "▁roy": 7521,
      "▁kar": 7522,
      "▁Que": 7523,
      "Equ": 7524,
      "▁रख": 7525,
      "än": 7526,
      "rawn": 7527,
      "ல்ல": 7528,
      "▁ses": 7529,
      "▁equival": 7530,
      "▁ahead": 7531,
      "atin": 7532,
      "ौर": 7533,
      "▁하": 7534,
      "▁adapt": 7535,
      "▁Rich": 7536,
      "allel": 7537,
      "▁दिन": 7538,
      "▁previously": 7539,
      "▁Av": 7540,
      "്ര": 7541,
      "▁Rober": 7542,
      "нии": 7543,
      "component": 7544,
      "▁strategy": 7545,
      "▁ok": 7546,
      "▁race": 7547,
      "▁payment": 7548,
      "▁hundred": 7549,
      "atever": 7550,
      "▁बार": 7551,
      "▁बै": 7552,
      "▁\",": 7553,
      "▁ped": 7554,
      "QL": 7555,
      "olar": 7556,
      "▁दोस्त": 7557,
      "values": 7558,
      "▁sed": 7559,
      "DR": 7560,
      "sen": 7561,
      "▁fix": 7562,
      "▁कम": 7563,
      "▁myself": 7564,
      "document": 7565,
      "hy": 7566,
      "++;": 7567,
      "pop": 7568,
      "foot": 7569,
      "▁oder": 7570,
      "bottom": 7571,
      "asion": 7572,
      "ests": 7573,
      "isher": 7574,
      "ным": 7575,
      "▁premi": 7576,
      "rated": 7577,
      "▁Time": 7578,
      "▁characters": 7579,
      "▁हि": 7580,
      "▁मि": 7581,
      "▁होगा": 7582,
      "र्स": 7583,
      "▁divers": 7584,
      "▁Gl": 7585,
      "angan": 7586,
      "മാ": 7587,
      "▁master": 7588,
      "bf": 7589,
      "hav": 7590,
      "▁England": 7591,
      "SO": 7592,
      "▁upper": 7593,
      "▁jed": 7594,
      "▁texture": 7595,
      "itemize": 7596,
      "▁hus": 7597,
      "сте": 7598,
      "anges": 7599,
      "▁joint": 7600,
      "▁लगा": 7601,
      "ALL": 7602,
      "▁છે": 7603,
      "自己": 7604,
      "aturday": 7605,
      "▁weather": 7606,
      "▁Open": 7607,
      "зы": 7608,
      "▁query": 7609,
      "▁ring": 7610,
      "▁fuel": 7611,
      "▁guys": 7612,
      "▁snow": 7613,
      "psi": 7614,
      "▁consequ": 7615,
      "▁manager": 7616,
      "temp": 7617,
      "CP": 7618,
      "VER": 7619,
      "▁density": 7620,
      "▁Science": 7621,
      "▁analy": 7622,
      "▁returns": 7623,
      "you": 7624,
      "▁रही": 7625,
      "▁animal": 7626,
      "FT": 7627,
      "▁abstract": 7628,
      "ctx": 7629,
      "▁influence": 7630,
      "▁स्वा": 7631,
      "water": 7632,
      "items": 7633,
      "They": 7634,
      "▁miles": 7635,
      "یم": 7636,
      "पर": 7637,
      "▁የ": 7638,
      "ાર": 7639,
      "▁\"./": 7640,
      "boot": 7641,
      "▁beach": 7642,
      "▁Wed": 7643,
      "▁healthy": 7644,
      "لي": 7645,
      "▁amazing": 7646,
      "▁principal": 7647,
      "iser": 7648,
      "▁cer": 7649,
      "which": 7650,
      "erap": 7651,
      "enz": 7652,
      "▁nous": 7653,
      "чен": 7654,
      "meta": 7655,
      "screen": 7656,
      "▁Ann": 7657,
      "่อ": 7658,
      "▁shared": 7659,
      "▁Most": 7660,
      "gle": 7661,
      "ır": 7662,
      "▁बे": 7663,
      "onday": 7664,
      "▁সু": 7665,
      "▁Ev": 7666,
      "▁দু": 7667,
      "▁হয়": 7668,
      "scale": 7669,
      "Av": 7670,
      "▁push": 7671,
      "▁Friday": 7672,
      "oche": 7673,
      "command": 7674,
      "▁goals": 7675,
      "OK": 7676,
      "▁collabor": 7677,
      "▁Cr": 7678,
      "▁sind": 7679,
      "ئے": 7680,
      "▁coffee": 7681,
      "background": 7682,
      "▁workers": 7683,
      "গুল": 7684,
      "▁Every": 7685,
      "▁agreement": 7686,
      "▁Div": 7687,
      "リー": 7688,
      "▁parameter": 7689,
      "রণ": 7690,
      "▁century": 7691,
      "IB": 7692,
      "▁Washington": 7693,
      "▁classes": 7694,
      "gebra": 7695,
      "ções": 7696,
      "▁सबसे": 7697,
      "▁hop": 7698,
      "▁ऑफ": 7699,
      "ूल": 7700,
      "iced": 7701,
      "ட்டு": 7702,
      "enter": 7703,
      "▁pages": 7704,
      "that": 7705,
      "ınd": 7706,
      "▁Gold": 7707,
      "▁Leg": 7708,
      "▁susp": 7709,
      "▁expert": 7710,
      "Our": 7711,
      "▁Even": 7712,
      "▁tests": 7713,
      "▁Each": 7714,
      "▁budget": 7715,
      "ESS": 7716,
      "▁cookies": 7717,
      "▁Sun": 7718,
      "PR": 7719,
      "address": 7720,
      "Ass": 7721,
      "hab": 7722,
      "▁completed": 7723,
      "▁proof": 7724,
      "udo": 7725,
      "에서": 7726,
      "▁আস": 7727,
      "▁vs": 7728,
      "▁ча": 7729,
      "▁{\\": 7730,
      "▁się": 7731,
      "▁separate": 7732,
      "▁Ze": 7733,
      "डी": 7734,
      "▁announced": 7735,
      "late": 7736,
      "▁quarter": 7737,
      "▁empty": 7738,
      "кт": 7739,
      "ারা": 7740,
      "Tool": 7741,
      "IE": 7742,
      "▁गु": 7743,
      "▁に": 7744,
      "▁flu": 7745,
      "ತ್ತ": 7746,
      "▁AD": 7747,
      "▁так": 7748,
      "▁ไ": 7749,
      "FL": 7750,
      "▁objects": 7751,
      "▁absor": 7752,
      "▁Educ": 7753,
      "alian": 7754,
      "मे": 7755,
      "▁['": 7756,
      "▁responsible": 7757,
      "▁elif": 7758,
      "▁prepared": 7759,
      "▁opportunities": 7760,
      "ങ്ങ": 7761,
      "Min": 7762,
      "placeholder": 7763,
      "▁earth": 7764,
      "Main": 7765,
      "िक्": 7766,
      "▁COVID": 7767,
      "▁Water": 7768,
      "います": 7769,
      "য়া": 7770,
      "ந்து": 7771,
      "eme": 7772,
      "प्र": 7773,
      "▁univers": 7774,
      "utt": 7775,
      "▁sv": 7776,
      "description": 7777,
      "exec": 7778,
      "▁served": 7779,
      "look": 7780,
      "वन": 7781,
      "aki": 7782,
      "Part": 7783,
      "▁werden": 7784,
      "▁spent": 7785,
      "ছি": 7786,
      "▁convers": 7787,
      "layout": 7788,
      "▁parties": 7789,
      "▁AN": 7790,
      "ische": 7791,
      "Font": 7792,
      "heet": 7793,
      "▁fav": 7794,
      "Each": 7795,
      "del": 7796,
      "▁chain": 7797,
      "▁relevant": 7798,
      "▁ನ": 7799,
      "lay": 7800,
      "▁rent": 7801,
      "▁Jack": 7802,
      "▁Design": 7803,
      "▁bright": 7804,
      "▁shop": 7805,
      "▁thank": 7806,
      "▁fans": 7807,
      "▁moved": 7808,
      "ذا": 7809,
      "awa": 7810,
      "▁আমি": 7811,
      "▁vide": 7812,
      "чески": 7813,
      "nb": 7814,
      "ूं": 7815,
      "▁Office": 7816,
      "▁пра": 7817,
      "egraphics": 7818,
      "includegraphics": 7819,
      "▁military": 7820,
      "▁advantage": 7821,
      "र्थ": 7822,
      "▁Fil": 7823,
      "▁theme": 7824,
      "▁anc": 7825,
      "च्या": 7826,
      "▁tempor": 7827,
      "PC": 7828,
      "▁pictures": 7829,
      "▁French": 7830,
      "การ": 7831,
      "ков": 7832,
      "olic": 7833,
      "▁atm": 7834,
      "▁generated": 7835,
      "▁phen": 7836,
      "obj": 7837,
      "rations": 7838,
      "▁hay": 7839,
      "▁în": 7840,
      "▁PRO": 7841,
      "ια": 7842,
      "how": 7843,
      "itness": 7844,
      "▁fort": 7845,
      "▁settings": 7846,
      "PT": 7847,
      "▁không": 7848,
      "▁মা": 7849,
      "▁Engine": 7850,
      "Nav": 7851,
      "tha": 7852,
      "▁tag": 7853,
      "▁alle": 7854,
      "▁Jes": 7855,
      "▁sto": 7856,
      "ান্ত": 7857,
      "▁communic": 7858,
      "▁gra": 7859,
      "▁medium": 7860,
      "dist": 7861,
      "ischen": 7862,
      "▁उत्": 7863,
      "نے": 7864,
      "য়ার": 7865,
      "▁UN": 7866,
      "aran": 7867,
      "arc": 7868,
      "él": 7869,
      "▁ş": 7870,
      "লো": 7871,
      "▁త": 7872,
      "ça": 7873,
      "Tab": 7874,
      "▁brain": 7875,
      "▁ven": 7876,
      "про": 7877,
      "▁polic": 7878,
      "▁Project": 7879,
      "▁efforts": 7880,
      "▁…": 7881,
      "▁ö": 7882,
      "▁MA": 7883,
      "▁radio": 7884,
      "ần": 7885,
      "▁Good": 7886,
      "ಂದ": 7887,
      "就是": 7888,
      "▁billion": 7889,
      "▁você": 7890,
      "ioni": 7891,
      "isk": 7892,
      "ín": 7893,
      "Width": 7894,
      "র্ত": 7895,
      "iche": 7896,
      "▁تو": 7897,
      "olo": 7898,
      "чно": 7899,
      "িশ": 7900,
      "▁Road": 7901,
      "double": 7902,
      "ствен": 7903,
      "▁Fre": 7904,
      "▁district": 7905,
      "▁containing": 7906,
      "▁với": 7907,
      "ım": 7908,
      "▁tur": 7909,
      "ferences": 7910,
      "င်": 7911,
      "pective": 7912,
      "▁colors": 7913,
      "▁todo": 7914,
      "▁од": 7915,
      "ระ": 7916,
      "▁Ка": 7917,
      "▁Note": 7918,
      "hens": 7919,
      "▁department": 7920,
      "▁liquid": 7921,
      "▁editor": 7922,
      "▁cancer": 7923,
      "▁driver": 7924,
      "Answer": 7925,
      "uv": 7926,
      "annot": 7927,
      "াকে": 7928,
      "لام": 7929,
      "▁template": 7930,
      "alah": 7931,
      "▁sport": 7932,
      "▁federal": 7933,
      "▁insert": 7934,
      "▁Jer": 7935,
      "▁Hand": 7936,
      "▁interface": 7937,
      "رو": 7938,
      "▁arriv": 7939,
      "▁River": 7940,
      "▁Ins": 7941,
      "ZE": 7942,
      "▁गा": 7943,
      "രി": 7944,
      "▁Mo": 7945,
      "▁trip": 7946,
      "▁Fore": 7947,
      "▁database": 7948,
      "Ret": 7949,
      "ంచ": 7950,
      "intage": 7951,
      "▁SE": 7952,
      "▁kept": 7953,
      "epsilon": 7954,
      "▁Institute": 7955,
      "asure": 7956,
      "ipt": 7957,
      "▁schools": 7958,
      "▁Africa": 7959,
      "Tube": 7960,
      "ので": 7961,
      "あり": 7962,
      "▁gift": 7963,
      "abe": 7964,
      "▁families": 7965,
      "▁Sil": 7966,
      "road": 7967,
      "▁Đ": 7968,
      "alls": 7969,
      "ಿದ": 7970,
      "▁wrote": 7971,
      "▁garden": 7972,
      "▁अस": 7973,
      "▁teams": 7974,
      "▁],": 7975,
      "▁wish": 7976,
      "▁appreci": 7977,
      "Mr": 7978,
      "ién": 7979,
      "crete": 7980,
      "ংলা": 7981,
      "▁निर्": 7982,
      "▁flowers": 7983,
      "शा": 7984,
      "aset": 7985,
      "white": 7986,
      "いた": 7987,
      "Module": 7988,
      "▁Found": 7989,
      "Query": 7990,
      "star": 7991,
      "▁File": 7992,
      "▁Windows": 7993,
      "▁mort": 7994,
      "▁или": 7995,
      "Stream": 7996,
      "▁Grand": 7997,
      "▁ton": 7998,
      "▁fi": 7999,
      "ूर्": 8000,
      "▁bird": 8001,
      "hors": 8002,
      "acks": 8003,
      "▁Land": 8004,
      "▁OR": 8005,
      "▁End": 8006,
      "icit": 8007,
      "▁supported": 8008,
      "▁adding": 8009,
      "▁circum": 8010,
      "▁समय": 8011,
      "▁remov": 8012,
      "▁fashion": 8013,
      "▁ш": 8014,
      "▁τη": 8015,
      "Ut": 8016,
      "BL": 8017,
      "csv": 8018,
      "▁கு": 8019,
      "▁importance": 8020,
      "allow": 8021,
      "दि": 8022,
      "▁ž": 8023,
      "ート": 8024,
      "▁ak": 8025,
      "▁хо": 8026,
      "abilities": 8027,
      "pu": 8028,
      "▁jug": 8029,
      "▁وا": 8030,
      "▁الح": 8031,
      "▁occup": 8032,
      "rian": 8033,
      "▁pra": 8034,
      "▁Although": 8035,
      "▁Bay": 8036,
      "▁пред": 8037,
      "▁category": 8038,
      "▁bil": 8039,
      "▁Color": 8040,
      "otimes": 8041,
      "्ञ": 8042,
      "eno": 8043,
      "ின": 8044,
      "كم": 8045,
      "▁über": 8046,
      "▁resistance": 8047,
      "รา": 8048,
      "iga": 8049,
      "isms": 8050,
      "▁sist": 8051,
      "▁detail": 8052,
      "▁क्वेश्चन": 8053,
      "▁award": 8054,
      "auty": 8055,
      "ச்ச": 8056,
      "care": 8057,
      "ను": 8058,
      "ング": 8059,
      "▁fest": 8060,
      "▁desc": 8061,
      "▁মান": 8062,
      "Down": 8063,
      "▁Arch": 8064,
      "▁Sum": 8065,
      "റ്": 8066,
      "▁rom": 8067,
      "▁Л": 8068,
      "uns": 8069,
      "}>": 8070,
      "task": 8071,
      "-(": 8072,
      "▁measures": 8073,
      "inate": 8074,
      "▁animals": 8075,
      "rees": 8076,
      "pected": 8077,
      "जे": 8078,
      "ब्": 8079,
      "▁CD": 8080,
      "▁god": 8081,
      "▁explain": 8082,
      "▁ہو": 8083,
      "▁Equ": 8084,
      "▁दोस्तों": 8085,
      "▁Phil": 8086,
      "▁Franc": 8087,
      "▁bath": 8088,
      "▁दु": 8089,
      "anned": 8090,
      "▁pull": 8091,
      "oul": 8092,
      "ரி": 8093,
      "▁san": 8094,
      "τα": 8095,
      "▁Association": 8096,
      "fs": 8097,
      "▁Great": 8098,
      "▁Long": 8099,
      "ด้": 8100,
      "▁standing": 8101,
      "▁Chem": 8102,
      "▁steel": 8103,
      "▁protected": 8104,
      "▁competition": 8105,
      "▁alleg": 8106,
      "▁करता": 8107,
      "▁गए": 8108,
      "sey": 8109,
      "▁increases": 8110,
      "aron": 8111,
      "ifications": 8112,
      "▁pros": 8113,
      "service": 8114,
      "▁opening": 8115,
      "▁sitting": 8116,
      "antic": 8117,
      "▁peace": 8118,
      "▁З": 8119,
      "gment": 8120,
      "TA": 8121,
      "▁economy": 8122,
      "▁owner": 8123,
      "よう": 8124,
      "▁veget": 8125,
      "▁favorite": 8126,
      "ন্ধ": 8127,
      "▁advert": 8128,
      "%;": 8129,
      "ಾರ": 8130,
      "▁Bas": 8131,
      "▁born": 8132,
      "ട്ട": 8133,
      "▁flag": 8134,
      "lies": 8135,
      "▁Secret": 8136,
      "▁Church": 8137,
      "▁は": 8138,
      "AME": 8139,
      "oted": 8140,
      "▁burn": 8141,
      "▁Rob": 8142,
      "▁efficient": 8143,
      "cup": 8144,
      "bel": 8145,
      "ancing": 8146,
      "home": 8147,
      "▁द्वारा": 8148,
      "ervation": 8149,
      "▁wants": 8150,
      "▁AM": 8151,
      "जन": 8152,
      "▁š": 8153,
      "▁architect": 8154,
      "▁manner": 8155,
      "▁furn": 8156,
      "cean": 8157,
      "ài": 8158,
      "▁finding": 8159,
      "▁vit": 8160,
      "frak": 8161,
      "cr": 8162,
      "एस": 8163,
      "▁रु": 8164,
      "othing": 8165,
      "atically": 8166,
      "imento": 8167,
      "ран": 8168,
      "mathfrak": 8169,
      "▁owners": 8170,
      "▁Committee": 8171,
      "▁operating": 8172,
      "gal": 8173,
      "▁Sunday": 8174,
      "▁raise": 8175,
      "▁pure": 8176,
      "ROM": 8177,
      "▁feeling": 8178,
      "▁ont": 8179,
      "▁plane": 8180,
      "orrow": 8181,
      "mem": 8182,
      "▁তাদের": 8183,
      "radi": 8184,
      "HTML": 8185,
      "క్": 8186,
      "▁Australia": 8187,
      "▁synt": 8188,
      "aire": 8189,
      "▁buff": 8190,
      "▁ze": 8191,
      "▁dalam": 8192,
      "▁Tex": 8193,
      "options": 8194,
      "▁pero": 8195,
      "▁Object": 8196,
      "▁stars": 8197,
      "▁х": 8198,
      "▁Array": 8199,
      "▁deli": 8200,
      "▁^": 8201,
      "▁civil": 8202,
      "▁ON": 8203,
      "योग": 8204,
      "▁ice": 8205,
      "▁sé": 8206,
      "▁clearly": 8207,
      "▁views": 8208,
      "SD": 8209,
      "sect": 8210,
      "amil": 8211,
      "................": 8212,
      "▁elim": 8213,
      "▁guide": 8214,
      "(\"/": 8215,
      "▁cash": 8216,
      "▁hotel": 8217,
      "bert": 8218,
      "▁defendant": 8219,
      "quare": 8220,
      "▁Facebook": 8221,
      "ulo": 8222,
      "ipping": 8223,
      "▁Saturday": 8224,
      "arian": 8225,
      "▁Christmas": 8226,
      "▁Miss": 8227,
      "rey": 8228,
      "▁perhaps": 8229,
      "▁Information": 8230,
      "▁Top": 8231,
      "aus": 8232,
      "Net": 8233,
      "cción": 8234,
      "ypes": 8235,
      "▁Development": 8236,
      "apat": 8237,
      "▁जि": 8238,
      "▁gel": 8239,
      "ensor": 8240,
      "izontal": 8241,
      "GB": 8242,
      "ത്ത": 8243,
      "oli": 8244,
      "bet": 8245,
      "▁মধ্য": 8246,
      "alar": 8247,
      "xe": 8248,
      "▁stated": 8249,
      "いて": 8250,
      "▁अपनी": 8251,
      "ष्": 8252,
      "▁CA": 8253,
      "▁formed": 8254,
      "▁prin": 8255,
      "▁female": 8256,
      "▁Anal": 8257,
      "▁psych": 8258,
      "ನ್ನ": 8259,
      "▁disp": 8260,
      "▁depos": 8261,
      "▁epis": 8262,
      "▁esp": 8263,
      "▁ส": 8264,
      "isl": 8265,
      "SA": 8266,
      "▁bei": 8267,
      "▁church": 8268,
      "person": 8269,
      "Property": 8270,
      "ươ": 8271,
      "figure": 8272,
      "ాల": 8273,
      "▁commit": 8274,
      "▁guid": 8275,
      "▁perm": 8276,
      "estic": 8277,
      "ेंगे": 8278,
      "enda": 8279,
      "द्र": 8280,
      "war": 8281,
      "▁Uh": 8282,
      "▁info": 8283,
      "agment": 8284,
      "izz": 8285,
      "▁खा": 8286,
      "▁বলে": 8287,
      "▁USA": 8288,
      "▁package": 8289,
      "▁forces": 8290,
      "Here": 8291,
      "igo": 8292,
      "্দ": 8293,
      "▁bott": 8294,
      "▁ভারত": 8295,
      "▁approximately": 8296,
      "▁Hot": 8297,
      "मु": 8298,
      "▁generation": 8299,
      "▁voice": 8300,
      "textwidth": 8301,
      "clusive": 8302,
      "aires": 8303,
      "▁formation": 8304,
      "tenance": 8305,
      "Ext": 8306,
      "▁Po": 8307,
      "▁profession": 8308,
      "▁panel": 8309,
      "door": 8310,
      "xml": 8311,
      "undo": 8312,
      "▁Kh": 8313,
      "▁introduced": 8314,
      "ース": 8315,
      "▁xml": 8316,
      "▁scene": 8317,
      "score": 8318,
      "▁challenge": 8319,
      "Panel": 8320,
      "▁waste": 8321,
      "vector": 8322,
      "▁returned": 8323,
      "▁partner": 8324,
      "▁artist": 8325,
      "▁rich": 8326,
      "▁relation": 8327,
      "être": 8328,
      "ipped": 8329,
      "▁technical": 8330,
      "ifact": 8331,
      "বা": 8332,
      "bind": 8333,
      "▁shirt": 8334,
      "delete": 8335,
      "▁tent": 8336,
      "▁gro": 8337,
      "ós": 8338,
      "▁north": 8339,
      "▁fan": 8340,
      "▁delivery": 8341,
      "бу": 8342,
      "▁conven": 8343,
      "float": 8344,
      "▁rank": 8345,
      "▁चल": 8346,
      "`,": 8347,
      "▁gal": 8348,
      "▁welcome": 8349,
      "ан": 8350,
      "▁kitchen": 8351,
      "▁relax": 8352,
      "iano": 8353,
      "बी": 8354,
      "▁prime": 8355,
      "aming": 8356,
      "▁highlight": 8357,
      "example": 8358,
      "кра": 8359,
      "ều": 8360,
      "▁Cle": 8361,
      "вет": 8362,
      "▁shoot": 8363,
      "asket": 8364,
      "ছু": 8365,
      "▁कार्य": 8366,
      "тив": 8367,
      "പ്പ": 8368,
      "▁token": 8369,
      "uda": 8370,
      "▁पु": 8371,
      "▁Lo": 8372,
      "▁json": 8373,
      "▁trong": 8374,
      "▁offered": 8375,
      "▁combination": 8376,
      "aha": 8377,
      "▁stret": 8378,
      "▁internet": 8379,
      "rar": 8380,
      "▁Services": 8381,
      "▁Under": 8382,
      "▁Stand": 8383,
      "organ": 8384,
      "▁identified": 8385,
      "▁belong": 8386,
      "▁सरकार": 8387,
      "▁prem": 8388,
      "standing": 8389,
      "▁died": 8390,
      "▁टी": 8391,
      "▁pad": 8392,
      "lee": 8393,
      "VS": 8394,
      "MM": 8395,
      "Window": 8396,
      "▁discussed": 8397,
      "▁external": 8398,
      "▁pré": 8399,
      "▁વ": 8400,
      "▁rare": 8401,
      "يا": 8402,
      "▁techniques": 8403,
      "aro": 8404,
      "▁ती": 8405,
      "▁conver": 8406,
      "RL": 8407,
      "aca": 8408,
      "While": 8409,
      "Project": 8410,
      "▁grid": 8411,
      "▁album": 8412,
      "тельно": 8413,
      "ত্ত": 8414,
      "தி": 8415,
      "▁cette": 8416,
      "▁algorithm": 8417,
      "▁ban": 8418,
      "▁FOR": 8419,
      "EventListener": 8420,
      "▁till": 8421,
      "▁dass": 8422,
      "▁unless": 8423,
      "cut": 8424,
      "▁Tur": 8425,
      "▁definitely": 8426,
      "▁slightly": 8427,
      "▁failed": 8428,
      "arks": 8429,
      "▁extract": 8430,
      "Instance": 8431,
      "▁happened": 8432,
      "Output": 8433,
      "▁measured": 8434,
      "np": 8435,
      "Header": 8436,
      "സ്": 8437,
      "▁Yes": 8438,
      "▁সম্প": 8439,
      "▁प्रति": 8440,
      "▁propos": 8441,
      "▁mist": 8442,
      "▁standards": 8443,
      "Bo": 8444,
      "▁trav": 8445,
      "▁Stat": 8446,
      "და": 8447,
      "▁interval": 8448,
      "▁sustain": 8449,
      "▁False": 8450,
      "▁Alex": 8451,
      "▁reached": 8452,
      "▁त्या": 8453,
      "▁certainly": 8454,
      "\\\"": 8455,
      "▁बि": 8456,
      "▁که": 8457,
      "تی": 8458,
      "▁industrial": 8459,
      "▁Tom": 8460,
      "uis": 8461,
      "BU": 8462,
      "nergy": 8463,
      "imb": 8464,
      "dot": 8465,
      "msg": 8466,
      "▁akan": 8467,
      "▁Because": 8468,
      "வி": 8469,
      "▁expos": 8470,
      "▁Gen": 8471,
      "here": 8472,
      "admin": 8473,
      "arios": 8474,
      "▁Ba": 8475,
      "▁removed": 8476,
      "ampions": 8477,
      "sign": 8478,
      "▁debt": 8479,
      "▁प्रा": 8480,
      "ITY": 8481,
      "entry": 8482,
      "ız": 8483,
      "▁Li": 8484,
      "▁argument": 8485,
      "▁가": 8486,
      "▁processing": 8487,
      "▁III": 8488,
      "▁Bre": 8489,
      "idades": 8490,
      "ভাবে": 8491,
      "▁Monday": 8492,
      "Builder": 8493,
      "session": 8494,
      "▁EX": 8495,
      "থে": 8496,
      "[:": 8497,
      "odies": 8498,
      "▁concentration": 8499,
      "YPE": 8500,
      "ansion": 8501,
      "сси": 8502,
      "\"></": 8503,
      "né": 8504,
      "▁coach": 8505,
      "Mat": 8506,
      "osh": 8507,
      "▁somew": 8508,
      "\"/>": 8509,
      "<?": 8510,
      "▁stories": 8511,
      "▁Two": 8512,
      "idas": 8513,
      "▁definition": 8514,
      "Player": 8515,
      "END": 8516,
      "erial": 8517,
      "▁bra": 8518,
      "▁nach": 8519,
      "▁equations": 8520,
      "▁magnetic": 8521,
      "ือ": 8522,
      "icks": 8523,
      "lets": 8524,
      "orter": 8525,
      "ണ്": 8526,
      "من": 8527,
      "▁এর": 8528,
      "ন্ত্র": 8529,
      "েষ": 8530,
      "ECT": 8531,
      "वार": 8532,
      "าม": 8533,
      "Top": 8534,
      "▁operator": 8535,
      "▁இரு": 8536,
      "FI": 8537,
      "▁boolean": 8538,
      "equation": 8539,
      "▁define": 8540,
      "▁plot": 8541,
      "itud": 8542,
      "arant": 8543,
      "xture": 8544,
      "grid": 8545,
      "ishes": 8546,
      "icated": 8547,
      "ws": 8548,
      "Phi": 8549,
      "▁نے": 8550,
      "Ge": 8551,
      "గా": 8552,
      "sche": 8553,
      "Max": 8554,
      "▁Chinese": 8555,
      "second": 8556,
      "SER": 8557,
      "lan": 8558,
      "▁spend": 8559,
      "CRE": 8560,
      "lab": 8561,
      "zed": 8562,
      "isse": 8563,
      "▁pag": 8564,
      "Off": 8565,
      "▁δ": 8566,
      "▁>>": 8567,
      "▁sports": 8568,
      "Pol": 8569,
      "▁rise": 8570,
      "Cal": 8571,
      "range": 8572,
      "▁extremely": 8573,
      "Can": 8574,
      "▁leader": 8575,
      "▁Lou": 8576,
      "▁nas": 8577,
      "▁cup": 8578,
      "▁nuest": 8579,
      "Num": 8580,
      "▁ле": 8581,
      "▁YouTube": 8582,
      "▁thread": 8583,
      "ensional": 8584,
      "▁finished": 8585,
      "▁Life": 8586,
      "iliar": 8587,
      "▁purs": 8588,
      "ungs": 8589,
      "ಾಗ": 8590,
      "いう": 8591,
      "atan": 8592,
      "irmed": 8593,
      "acket": 8594,
      "▁prove": 8595,
      "tabular": 8596,
      "Row": 8597,
      "arp": 8598,
      "▁Bill": 8599,
      "▁Create": 8600,
      "▁noted": 8601,
      "рт": 8602,
      "▁iron": 8603,
      "elles": 8604,
      "▁voor": 8605,
      "mult": 8606,
      "control": 8607,
      "ilib": 8608,
      "▁disapp": 8609,
      "▁domain": 8610,
      "▁لل": 8611,
      "\"\"": 8612,
      "▁danger": 8613,
      "▁tan": 8614,
      "Length": 8615,
      "▁purposes": 8616,
      "▁deriv": 8617,
      "▁Lord": 8618,
      "orig": 8619,
      "هم": 8620,
      "apa": 8621,
      "▁शुर": 8622,
      "▁Okay": 8623,
      "▁Mont": 8624,
      "▁செய": 8625,
      "▁पी": 8626,
      "▁mol": 8627,
      "gent": 8628,
      "Container": 8629,
      "dep": 8630,
      "▁Roy": 8631,
      "▁powerful": 8632,
      "▁shift": 8633,
      "▁businesses": 8634,
      "styles": 8635,
      "াত্র": 8636,
      "▁{}": 8637,
      "bour": 8638,
      "login": 8639,
      "HER": 8640,
      "printf": 8641,
      "▁TR": 8642,
      "▁ment": 8643,
      "োর": 8644,
      "▁Max": 8645,
      "▁environmental": 8646,
      "▁तरह": 8647,
      "▁ہیں": 8648,
      "▁आपके": 8649,
      "ijn": 8650,
      "▁cards": 8651,
      "▁brief": 8652,
      "Pass": 8653,
      "வு": 8654,
      "ция": 8655,
      "▁সর": 8656,
      "▁insurance": 8657,
      "drop": 8658,
      "▁circuit": 8659,
      "▁tiss": 8660,
      "▁কিন্ত": 8661,
      "িব": 8662,
      "▁tum": 8663,
      "▁tub": 8664,
      "▁chi": 8665,
      "▁todos": 8666,
      "▁categ": 8667,
      "▁bis": 8668,
      "yan": 8669,
      "oration": 8670,
      "▁फिर": 8671,
      "▁college": 8672,
      "্ঞ": 8673,
      "abet": 8674,
      "▁raised": 8675,
      "ण्या": 8676,
      "ীয়": 8677,
      "▁opened": 8678,
      "▁Tem": 8679,
      "ুষ": 8680,
      "rency": 8681,
      "▁Е": 8682,
      "▁learned": 8683,
      "appy": 8684,
      "▁مح": 8685,
      "AA": 8686,
      "▁notes": 8687,
      "▁implementation": 8688,
      "▁Build": 8689,
      "cdots": 8690,
      "mazon": 8691,
      "▁झ": 8692,
      "▁hai": 8693,
      "ைக": 8694,
      "▁बारे": 8695,
      "Ke": 8696,
      "subset": 8697,
      "▁examples": 8698,
      "▁discussion": 8699,
      "▁cha": 8700,
      "▁identify": 8701,
      "ướ": 8702,
      "ometric": 8703,
      "▁Den": 8704,
      "▁husband": 8705,
      "▁rub": 8706,
      "password": 8707,
      "▁Report": 8708,
      "▁daughter": 8709,
      "▁south": 8710,
      "▁PM": 8711,
      "▁Mary": 8712,
      "▁strugg": 8713,
      "oco": 8714,
      "▁Spring": 8715,
      "▁கொ": 8716,
      "console": 8717,
      "▁(\\": 8718,
      "▁Vector": 8719,
      "Ver": 8720,
      "lines": 8721,
      "▁easier": 8722,
      "็น": 8723,
      "Dec": 8724,
      "angular": 8725,
      "▁agent": 8726,
      "▁egg": 8727,
      "Base": 8728,
      "▁generate": 8729,
      "ió": 8730,
      "▁gone": 8731,
      "▁Many": 8732,
      "▁wire": 8733,
      "osite": 8734,
      "▁records": 8735,
      "▁Vir": 8736,
      "▁opinion": 8737,
      "▁lang": 8738,
      "▁Code": 8739,
      "ış": 8740,
      "став": 8741,
      "शी": 8742,
      "Column": 8743,
      "▁depth": 8744,
      "▁हुआ": 8745,
      "strument": 8746,
      "▁proport": 8747,
      "▁agree": 8748,
      "মে": 8749,
      "▁tun": 8750,
      "ща": 8751,
      "চ্ছে": 8752,
      "▁ao": 8753,
      "▁Show": 8754,
      "Options": 8755,
      "▁Bet": 8756,
      "▁spin": 8757,
      "icity": 8758,
      "ston": 8759,
      "▁कह": 8760,
      "▁whom": 8761,
      "Rem": 8762,
      "iture": 8763,
      "poss": 8764,
      "ની": 8765,
      "▁جو": 8766,
      "ango": 8767,
      "▁dram": 8768,
      "enta": 8769,
      "▁exchange": 8770,
      "▁vacc": 8771,
      "▁Bu": 8772,
      "▁ग्र": 8773,
      "▁exercise": 8774,
      "▁funds": 8775,
      "pie": 8776,
      "site": 8777,
      "▁पढ़": 8778,
      "▁Social": 8779,
      "inde": 8780,
      "▁profile": 8781,
      "Current": 8782,
      "ाई": 8783,
      "▁runs": 8784,
      "▁wear": 8785,
      ".:": 8786,
      "▁claims": 8787,
      "Frame": 8788,
      "▁Pan": 8789,
      "▁peu": 8790,
      "BO": 8791,
      "▁significantly": 8792,
      "osing": 8793,
      "▁विश": 8794,
      "icious": 8795,
      "▁На": 8796,
      "▁toward": 8797,
      "▁differences": 8798,
      "▁Year": 8799,
      "▁failure": 8800,
      "omic": 8801,
      "Game": 8802,
      "το": 8803,
      "(_": 8804,
      "▁Pet": 8805,
      "▁sac": 8806,
      "▁::": 8807,
      "▁fer": 8808,
      "GE": 8809,
      "ρο": 8810,
      "▁Bur": 8811,
      "▁developing": 8812,
      "▁Management": 8813,
      "▁उन्होंने": 8814,
      "ías": 8815,
      "▁suit": 8816,
      "▁Society": 8817,
      "graph": 8818,
      "urban": 8819,
      "▁prev": 8820,
      "পর": 8821,
      "tml": 8822,
      "_\\": 8823,
      "Sw": 8824,
      "▁nuclear": 8825,
      "################": 8826,
      "▁traffic": 8827,
      "▁હ": 8828,
      "ங்கள்": 8829,
      "reek": 8830,
      "igger": 8831,
      "▁conflic": 8832,
      "▁Gal": 8833,
      "▁በ": 8834,
      "▁attend": 8835,
      "hetic": 8836,
      "Script": 8837,
      "でき": 8838,
      "▁logo": 8839,
      "ोर": 8840,
      "ल्या": 8841,
      "('/": 8842,
      "Height": 8843,
      "▁guess": 8844,
      "يم": 8845,
      "▁adopt": 8846,
      "▁Read": 8847,
      "▁facilities": 8848,
      "cht": 8849,
      "▁این": 8850,
      "scrib": 8851,
      "(`": 8852,
      "▁Director": 8853,
      "可能": 8854,
      "pir": 8855,
      "ಗಳ": 8856,
      "isis": 8857,
      "▁river": 8858,
      "▁regarding": 8859,
      "▁Mass": 8860,
      "್ರ": 8861,
      "▁majority": 8862,
      "▁thanks": 8863,
      "▁brown": 8864,
      "▁अगर": 8865,
      "langle": 8866,
      "rypt": 8867,
      "aje": 8868,
      "▁सकता": 8869,
      "▁Central": 8870,
      "plete": 8871,
      "resents": 8872,
      "%%%%": 8873,
      "▁NE": 8874,
      "ius": 8875,
      "ometry": 8876,
      "сли": 8877,
      "▁wid": 8878,
      "▁ర": 8879,
      "▁wie": 8880,
      "▁cycle": 8881,
      "esso": 8882,
      "▁plaintiff": 8883,
      "▁journal": 8884,
      "▁नाम": 8885,
      "▁AR": 8886,
      "▁থাক": 8887,
      "▁と": 8888,
      "method": 8889,
      "▁Best": 8890,
      "Comp": 8891,
      "يل": 8892,
      "ীন": 8893,
      "▁fundament": 8894,
      "inet": 8895,
      "ums": 8896,
      "▁procedure": 8897,
      "▁Pub": 8898,
      "▁എ": 8899,
      "ड़ी": 8900,
      "▁plastic": 8901,
      "cons": 8902,
      "▁ц": 8903,
      "▁communities": 8904,
      "Server": 8905,
      "▁continuous": 8906,
      "▁helped": 8907,
      "▁gru": 8908,
      "▁அவ": 8909,
      "hemat": 8910,
      "▁regist": 8911,
      "▁launch": 8912,
      "▁align": 8913,
      ")),": 8914,
      "allery": 8915,
      "black": 8916,
      "▁እ": 8917,
      "▁password": 8918,
      "ativ": 8919,
      "▁зна": 8920,
      "▁Mil": 8921,
      "▁Why": 8922,
      "mos": 8923,
      "▁atmosph": 8924,
      "DS": 8925,
      "ifer": 8926,
      "▁Union": 8927,
      "inu": 8928,
      "doc": 8929,
      "▁reli": 8930,
      "uma": 8931,
      "▁respond": 8932,
      "▁সব": 8933,
      "▁Nov": 8934,
      "▁solo": 8935,
      "'))": 8936,
      "▁male": 8937,
      "lat": 8938,
      "没有": 8939,
      "▁sympt": 8940,
      "=\"/": 8941,
      "жен": 8942,
      "▁Smith": 8943,
      "ây": 8944,
      "▁According": 8945,
      "going": 8946,
      "▁পূ": 8947,
      "▁script": 8948,
      "▁han": 8949,
      "icip": 8950,
      "hm": 8951,
      "▁Ф": 8952,
      "ном": 8953,
      "ACK": 8954,
      "Enter": 8955,
      "ifically": 8956,
      "ità": 8957,
      "▁ком": 8958,
      "vet": 8959,
      "only": 8960,
      "▁Wil": 8961,
      "▁mur": 8962,
      "ूस": 8963,
      "▁Flor": 8964,
      "tegr": 8965,
      "▁William": 8966,
      "faces": 8967,
      "▁comments": 8968,
      "▁বাংলা": 8969,
      "fast": 8970,
      "king": 8971,
      "▁Michael": 8972,
      "িম": 8973,
      "▁solve": 8974,
      "▁resist": 8975,
      "ву": 8976,
      "▁expressed": 8977,
      "この": 8978,
      "inen": 8979,
      "Search": 8980,
      "eres": 8981,
      "edit": 8982,
      "▁xmlns": 8983,
      "zie": 8984,
      "Update": 8985,
      "▁pada": 8986,
      "ходи": 8987,
      "▁speak": 8988,
      "$(": 8989,
      "▁onto": 8990,
      "▁challenges": 8991,
      "words": 8992,
      "Don": 8993,
      "▁কে": 8994,
      "ương": 8995,
      "cout": 8996,
      "ர்கள்": 8997,
      "ettings": 8998,
      "Port": 8999,
      "edy": 9000,
      "ributes": 9001,
      "▁whatever": 9002,
      "edge": 9003,
      "Work": 9004,
      "ாய": 9005,
      "▁printf": 9006,
      "otype": 9007,
      "Last": 9008,
      "▁finish": 9009,
      "istan": 9010,
      "▁correl": 9011,
      "▁ത": 9012,
      "Method": 9013,
      "▁latter": 9014,
      "eto": 9015,
      "icture": 9016,
      "▁mission": 9017,
      "▁которы": 9018,
      "▁ren": 9019,
      "Book": 9020,
      "▁administr": 9021,
      "inh": 9022,
      "▁curve": 9023,
      "зова": 9024,
      "▁leads": 9025,
      "addEventListener": 9026,
      "▁assume": 9027,
      "Sim": 9028,
      "▁Nat": 9029,
      "ター": 9030,
      "umi": 9031,
      "▁obj": 9032,
      "▁syn": 9033,
      "▁affected": 9034,
      "▁wir": 9035,
      "=(": 9036,
      "save": 9037,
      "Version": 9038,
      "▁eat": 9039,
      "isch": 9040,
      "▁rac": 9041,
      "phas": 9042,
      "▁truth": 9043,
      "▁ul": 9044,
      "スト": 9045,
      "iten": 9046,
      ".</": 9047,
      "▁chair": 9048,
      "▁Tor": 9049,
      "▁treated": 9050,
      "ustomer": 9051,
      "▁lif": 9052,
      "▁IT": 9053,
      "plt": 9054,
      "▁Club": 9055,
      "omin": 9056,
      "Left": 9057,
      "▁लग": 9058,
      "▁origin": 9059,
      "▁て": 9060,
      "▁goods": 9061,
      "▁nombre": 9062,
      "▁itu": 9063,
      "▁Game": 9064,
      "▁Organ": 9065,
      "▁टू": 9066,
      "Order": 9067,
      "ట్": 9068,
      "▁mental": 9069,
      "riz": 9070,
      "ANT": 9071,
      "рі": 9072,
      "cropped": 9073,
      "mode": 9074,
      "▁indu": 9075,
      "▁fant": 9076,
      "▁Further": 9077,
      "▁Lic": 9078,
      "▁Paris": 9079,
      "▁ec": 9080,
      "▁catal": 9081,
      "abs": 9082,
      "ีย": 9083,
      "Cell": 9084,
      "▁gran": 9085,
      "gency": 9086,
      "ск": 9087,
      "tag": 9088,
      "▁рабо": 9089,
      "▁Camp": 9090,
      "▁habit": 9091,
      "▁doctor": 9092,
      "▁seconds": 9093,
      "▁कै": 9094,
      "▁reduction": 9095,
      "oga": 9096,
      "▁pieces": 9097,
      "ường": 9098,
      "ahr": 9099,
      "▁Find": 9100,
      "▁df": 9101,
      "▁má": 9102,
      "▁inputs": 9103,
      "▁simpl": 9104,
      "▁forma": 9105,
      "▁advice": 9106,
      "pert": 9107,
      "▁structures": 9108,
      "ursday": 9109,
      "▁を": 9110,
      "pling": 9111,
      "ته": 9112,
      "▁resulting": 9113,
      "ún": 9114,
      "▁German": 9115,
      "▁route": 9116,
      "▁साल": 9117,
      "ogram": 9118,
      "▁অভ": 9119,
      "▁მ": 9120,
      "ят": 9121,
      "▁mai": 9122,
      "▁PL": 9123,
      "alo": 9124,
      "ठीक": 9125,
      "▁होती": 9126,
      "ocks": 9127,
      "▁confirm": 9128,
      "uesday": 9129,
      "▁fabric": 9130,
      "ructions": 9131,
      "».": 9132,
      "ictionary": 9133,
      "ું": 9134,
      "UD": 9135,
      "▁Ext": 9136,
      "▁evening": 9137,
      "र्व": 9138,
      "▁calls": 9139,
      "▁लेकर": 9140,
      "▁spl": 9141,
      "▁George": 9142,
      "iri": 9143,
      "▁virtual": 9144,
      "▁Republic": 9145,
      "Command": 9146,
      "▁대": 9147,
      "▁wedding": 9148,
      "▁votre": 9149,
      "▁relatively": 9150,
      "icio": 9151,
      "න්": 9152,
      "▁nue": 9153,
      "esch": 9154,
      "▁specified": 9155,
      "▁dream": 9156,
      "▁Et": 9157,
      "णि": 9158,
      "▁Vis": 9159,
      "▁throws": 9160,
      "ogy": 9161,
      "▁Oper": 9162,
      "▁EN": 9163,
      "nce": 9164,
      "াদের": 9165,
      "▁vez": 9166,
      "ITEM": 9167,
      "▁noise": 9168,
      "یس": 9169,
      "▁orient": 9170,
      "▁neighbor": 9171,
      "▁cout": 9172,
      "▁module": 9173,
      "▁sides": 9174,
      "Art": 9175,
      "▁attribute": 9176,
      "▁appeared": 9177,
      "Child": 9178,
      "GL": 9179,
      "▁restaurant": 9180,
      "non": 9181,
      "▁아": 9182,
      "uni": 9183,
      "▁Prov": 9184,
      "POST": 9185,
      "▁Journal": 9186,
      "▁Start": 9187,
      "subsection": 9188,
      "▁นะ": 9189,
      "▁---": 9190,
      "▁Supp": 9191,
      "troop": 9192,
      "बंध": 9193,
      "rence": 9194,
      "▁excess": 9195,
      "▁ठीक": 9196,
      "amer": 9197,
      "▁жи": 9198,
      "▁changing": 9199,
      "▁guard": 9200,
      "▁மா": 9201,
      "▁عن": 9202,
      "▁Russian": 9203,
      "▁driving": 9204,
      "▁persons": 9205,
      "▁PR": 9206,
      "files": 9207,
      "These": 9208,
      "('.": 9209,
      "ใน": 9210,
      "ей": 9211,
      "▁jump": 9212,
      "edom": 9213,
      "ві": 9214,
      "mal": 9215,
      "▁ку": 9216,
      "ेशन": 9217,
      ":]": 9218,
      "از": 9219,
      "▁भारत": 9220,
      "utter": 9221,
      ".$": 9222,
      "Position": 9223,
      "▁stim": 9224,
      "▁couldn": 9225,
      "▁cultural": 9226,
      "▁και": 9227,
      "▁interior": 9228,
      "ক্র": 9229,
      "সে": 9230,
      "Dr": 9231,
      "▁conference": 9232,
      "Change": 9233,
      "্জ": 9234,
      "}$-": 9235,
      "aa": 9236,
      "న్న": 9237,
      "real": 9238,
      "▁extended": 9239,
      "owa": 9240,
      "kar": 9241,
      "▁Acad": 9242,
      "▁Hen": 9243,
      "nament": 9244,
      "▁distinct": 9245,
      "ച്ച": 9246,
      "▁emot": 9247,
      "▁নে": 9248,
      "▁delay": 9249,
      "▁Type": 9250,
      "▁क्ष": 9251,
      "▁District": 9252,
      "▁ej": 9253,
      "▁velocity": 9254,
      "▁calculated": 9255,
      "Body": 9256,
      "eni": 9257,
      "▁holds": 9258,
      "Hello": 9259,
      "fection": 9260,
      "▁নাম": 9261,
      "▁strain": 9262,
      "▁echo": 9263,
      "Red": 9264,
      "▁Microsoft": 9265,
      "その": 9266,
      "}/": 9267,
      "▁же": 9268,
      "▁Ir": 9269,
      "در": 9270,
      "▁motiv": 9271,
      "Next": 9272,
      "▁suitable": 9273,
      "▁Play": 9274,
      "sql": 9275,
      "ême": 9276,
      "False": 9277,
      "▁puede": 9278,
      "▁calculate": 9279,
      "▁substit": 9280,
      "้น": 9281,
      "▁represents": 9282,
      "▁কিন্তু": 9283,
      "▁elev": 9284,
      "▁করেন": 9285,
      "▁efficiency": 9286,
      "ুদ্ধ": 9287,
      "្រ": 9288,
      "imary": 9289,
      "▁Star": 9290,
      "▁img": 9291,
      "▁combined": 9292,
      "▁Sy": 9293,
      "ണ്ട": 9294,
      "▁soil": 9295,
      "▁\"-": 9296,
      "क्ति": 9297,
      "▁comme": 9298,
      "▁API": 9299,
      "cohol": 9300,
      "assets": 9301,
      "▁alternative": 9302,
      "▁faith": 9303,
      "▁बच्च": 9304,
      "anes": 9305,
      "▁therap": 9306,
      "cat": 9307,
      "▁perman": 9308,
      "xd": 9309,
      "▁req": 9310,
      "▁delete": 9311,
      "▁loved": 9312,
      "Reference": 9313,
      "▁resolution": 9314,
      "▁vor": 9315,
      "oral": 9316,
      "▁centre": 9317,
      "зна": 9318,
      "▁rect": 9319,
      "Hz": 9320,
      "▁จ": 9321,
      "Gr": 9322,
      "▁wird": 9323,
      "▁mand": 9324,
      "bag": 9325,
      "▁보": 9326,
      "▁Frank": 9327,
      "indi": 9328,
      "▁chief": 9329,
      "ंत्री": 9330,
      "▁gene": 9331,
      "!\"": 9332,
      "▁seeing": 9333,
      "▁és": 9334,
      "unately": 9335,
      "None": 9336,
      "▁diet": 9337,
      "▁journey": 9338,
      "burg": 9339,
      "step": 9340,
      "hot": 9341,
      "eless": 9342,
      "auth": 9343,
      "ười": 9344,
      "ంది": 9345,
      "pay": 9346,
      "clear": 9347,
      "▁Mount": 9348,
      "antics": 9349,
      "▁estate": 9350,
      "▁vertical": 9351,
      "▁Review": 9352,
      "CN": 9353,
      "▁Are": 9354,
      "▁circumst": 9355,
      "▁Der": 9356,
      "धार": 9357,
      "▁inde": 9358,
      "▁acad": 9359,
      "hu": 9360,
      "▁Indust": 9361,
      "سم": 9362,
      "▁equivalent": 9363,
      "Entity": 9364,
      "acional": 9365,
      "Please": 9366,
      "▁मौ": 9367,
      "ajo": 9368,
      "▁enable": 9369,
      "▁doubt": 9370,
      "▁cars": 9371,
      "bro": 9372,
      "LECT": 9373,
      "ải": 9374,
      "▁survey": 9375,
      "اری": 9376,
      "?”": 9377,
      "▁walking": 9378,
      "UTTON": 9379,
      "▁sweet": 9380,
      "▁portion": 9381,
      "▁обра": 9382,
      "▁coast": 9383,
      "▁Mel": 9384,
      "▁gather": 9385,
      "ग्": 9386,
      "nesday": 9387,
      "▁params": 9388,
      "▁கா": 9389,
      "Const": 9390,
      "roph": 9391,
      "Attribute": 9392,
      "▁ಹ": 9393,
      "▁গ্র": 9394,
      "▁tasks": 9395,
      "ীব": 9396,
      "insert": 9397,
      "ड़ा": 9398,
      "▁غ": 9399,
      "चार": 9400,
      "Some": 9401,
      "PH": 9402,
      "ак": 9403,
      "annels": 9404,
      "▁Germany": 9405,
      "▁uniform": 9406,
      "▁liv": 9407,
      "▁fif": 9408,
      "にな": 9409,
      "render": 9410,
      "imm": 9411,
      "▁नंबर": 9412,
      "▁documents": 9413,
      "]:": 9414,
      "Eng": 9415,
      "▁nú": 9416,
      "AppCompat": 9417,
      "overy": 9418,
      "ര്‍": 9419,
      "▁시": 9420,
      "▁ಪ": 9421,
      "▁કર": 9422,
      "~\\": 9423,
      "▁NO": 9424,
      "ской": 9425,
      "▁Education": 9426,
      "▁library": 9427,
      "▁entr": 9428,
      "▁Dig": 9429,
      "pub": 9430,
      "▁অনু": 9431,
      "▁People": 9432,
      "ím": 9433,
      "▁react": 9434,
      "Home": 9435,
      "wan": 9436,
      "एं": 9437,
      "dt": 9438,
      "▁happens": 9439,
      "▁agricult": 9440,
      "▁$-": 9441,
      "support": 9442,
      "टा": 9443,
      "icing": 9444,
      "▁лю": 9445,
      "▁né": 9446,
      "▁AS": 9447,
      "▁हर": 9448,
      "amless": 9449,
      "では": 9450,
      "▁''": 9451,
      "▁자": 9452,
      "aan": 9453,
      "▁causes": 9454,
      "icago": 9455,
      "▁listed": 9456,
      "ിയ": 9457,
      "application": 9458,
      "▁rail": 9459,
      "▁estimated": 9460,
      "=>": 9461,
      "fix": 9462,
      "▁Control": 9463,
      "iana": 9464,
      "▁subsequ": 9465,
      "▁Image": 9466,
      "night": 9467,
      "▁compr": 9468,
      "حد": 9469,
      "▁employee": 9470,
      "icken": 9471,
      "ORE": 9472,
      "Details": 9473,
      "More": 9474,
      "▁الج": 9475,
      "ís": 9476,
      "▁कई": 9477,
      "arse": 9478,
      "▁fruit": 9479,
      "utely": 9480,
      "▁মধ্যে": 9481,
      "imiento": 9482,
      "▁Model": 9483,
      "aken": 9484,
      "▁axis": 9485,
      "▁مو": 9486,
      "oni": 9487,
      "▁Person": 9488,
      "▁extent": 9489,
      "cipl": 9490,
      "este": 9491,
      "że": 9492,
      "▁مش": 9493,
      "ное": 9494,
      "▁waiting": 9495,
      "▁reality": 9496,
      "▁ર": 9497,
      "ുക": 9498,
      "мер": 9499,
      "▁Island": 9500,
      "Level": 9501,
      "riage": 9502,
      "blue": 9503,
      "▁Rad": 9504,
      "▁sab": 9505,
      "frast": 9506,
      "▁characteristics": 9507,
      "icol": 9508,
      "▁Thomas": 9509,
      "adores": 9510,
      "ede": 9511,
      "MR": 9512,
      "▁Internet": 9513,
      "▁pink": 9514,
      "▁দেশ": 9515,
      "▁Big": 9516,
      "▁tel": 9517,
      "াগ": 9518,
      "▁Hall": 9519,
      "Lo": 9520,
      "Cor": 9521,
      "如果": 9522,
      "ன்ன": 9523,
      "life": 9524,
      "%.": 9525,
      "▁Twitter": 9526,
      "▁incorpor": 9527,
      "}`": 9528,
      "▁During": 9529,
      "▁contrast": 9530,
      "▁Christian": 9531,
      "ละ": 9532,
      "▁Key": 9533,
      "iation": 9534,
      "▁chart": 9535,
      "ovie": 9536,
      "▁bat": 9537,
      "▁lu": 9538,
      "▁Texas": 9539,
      "▁wur": 9540,
      "Preview": 9541,
      "▁leaving": 9542,
      "▁অর্": 9543,
      "erd": 9544,
      "EST": 9545,
      "▁afford": 9546,
      "Dir": 9547,
      "uli": 9548,
      "▁الله": 9549,
      "▁senior": 9550,
      "▁salt": 9551,
      "äh": 9552,
      "▁interaction": 9553,
      "▁기": 9554,
      "▁મ": 9555,
      "▁milk": 9556,
      "▁citiz": 9557,
      "▁dei": 9558,
      "▁př": 9559,
      "▁\"/": 9560,
      "liche": 9561,
      "▁flower": 9562,
      "▁sua": 9563,
      "Close": 9564,
      "▁girls": 9565,
      "acle": 9566,
      "▁Its": 9567,
      "▁nhi": 9568,
      "▁jobs": 9569,
      "▁för": 9570,
      "]$": 9571,
      "ек": 9572,
      "▁ו": 9573,
      "▁Android": 9574,
      "CI": 9575,
      "▁regions": 9576,
      "▁tou": 9577,
      "▁creative": 9578,
      "bb": 9579,
      "irection": 9580,
      "▁dit": 9581,
      "হার": 9582,
      "adr": 9583,
      "▁secure": 9584,
      "Mar": 9585,
      "▁SH": 9586,
      "ebug": 9587,
      "inar": 9588,
      ">();": 9589,
      "equals": 9590,
      "اف": 9591,
      "▁पे": 9592,
      "▁Amazon": 9593,
      "▁লা": 9594,
      "▁Blue": 9595,
      "argo": 9596,
      "jar": 9597,
      "ющи": 9598,
      "agg": 9599,
      "rium": 9600,
      "MOD": 9601,
      "▁الن": 9602,
      ".*": 9603,
      "Address": 9604,
      "▁उनके": 9605,
      "არ": 9606,
      "stack": 9607,
      "▁போ": 9608,
      "Load": 9609,
      "bot": 9610,
      "▁muy": 9611,
      "▁дру": 9612,
      "▁Fire": 9613,
      "▁apparent": 9614,
      "▁king": 9615,
      "▁ion": 9616,
      "▁Free": 9617,
      "bug": 9618,
      "grade": 9619,
      "▁Plan": 9620,
      "ahan": 9621,
      "▁Box": 9622,
      "▁अच्छ": 9623,
      "▁football": 9624,
      "▁அத": 9625,
      "▁maintenance": 9626,
      "াধ": 9627,
      "▁inner": 9628,
      "Provider": 9629,
      "▁Lake": 9630,
      "certain": 9631,
      "elcome": 9632,
      "SRP": 9633,
      "▁AL": 9634,
      "▁administration": 9635,
      "make": 9636,
      "▁composition": 9637,
      "ims": 9638,
      "▁famous": 9639,
      "Total": 9640,
      "▁minute": 9641,
      "▁Fund": 9642,
      "ski": 9643,
      "▁exceed": 9644,
      "▁الف": 9645,
      "udd": 9646,
      "Null": 9647,
      "▁তারা": 9648,
      "vez": 9649,
      "▁comfortable": 9650,
      "▁sono": 9651,
      "▁ру": 9652,
      "éri": 9653,
      "▁League": 9654,
      "▁meant": 9655,
      "▁dispos": 9656,
      "▁Return": 9657,
      "IGHT": 9658,
      "ীয়": 9659,
      "igan": 9660,
      "▁Number": 9661,
      "▁Author": 9662,
      "(\".": 9663,
      "▁হয়েছে": 9664,
      "▁shap": 9665,
      "▁nit": 9666,
      "▁fo": 9667,
      "▁properly": 9668,
      "blem": 9669,
      ")))": 9670,
      "yo": 9671,
      "▁आई": 9672,
      "▁Ha": 9673,
      "▁Second": 9674,
      "However": 9675,
      "数据": 9676,
      "▁Mot": 9677,
      "classList": 9678,
      "▁он": 9679,
      "FAULT": 9680,
      "oda": 9681,
      "▁pil": 9682,
      "▁ഇ": 9683,
      "▁Lin": 9684,
      "▁truck": 9685,
      "▁ди": 9686,
      "▁Congress": 9687,
      "▁manage": 9688,
      "▁Mex": 9689,
      "▁alert": 9690,
      "▁advanced": 9691,
      "article": 9692,
      "▁LIST": 9693,
      "▁intellig": 9694,
      "eria": 9695,
      "▁explained": 9696,
      "▁feedback": 9697,
      "terior": 9698,
      "▁Jesus": 9699,
      "oxy": 9700,
      "▁हूं": 9701,
      "▁alter": 9702,
      "▁intent": 9703,
      "Phone": 9704,
      "rich": 9705,
      "▁Console": 9706,
      "price": 9707,
      "▁deux": 9708,
      "SIZE": 9709,
[...]
